{"<unk>":0,"!":1,"\"":2,"%":3,"&":4,"'":5,"(":6,")":7,"*":8,"+":9,",":10,"-":11,".":12,"/":13,"0":14,"1":15,"2":16,"3":17,"4":18,"5":19,"6":20,"7":21,"8":22,"9":23,":":24,";":25,"<":26,"=":27,">":28,"?":29,"@":30,"A":31,"B":32,"C":33,"D":34,"E":35,"F":36,"G":37,"I":38,"K":39,"L":40,"M":41,"N":42,"O":43,"P":44,"R":45,"S":46,"T":47,"V":48,"X":49,"[":50,"]":51,"^":52,"_":53,"`":54,"a":55,"b":56,"c":57,"d":58,"e":59,"f":60,"g":61,"h":62,"i":63,"j":64,"k":65,"l":66,"m":67,"n":68,"o":69,"p":70,"r":71,"s":72,"t":73,"u":74,"v":75,"w":76,"x":77,"y":78,"z":79,"~":80,"★":81,"♡":82,"♥":83,"ㄱ":84,"ㄴ":85,"ㄷ":86,"ㄹ":87,"ㅁ":88,"ㅂ":89,"ㅅ":90,"ㅇ":91,"ㅈ":92,"ㅉ":93,"ㅋ":94,"ㅎ":95,"ㅏ":96,"ㅗ":97,"ㅜ":98,"ㅠ":99,"ㅡ":100,"ㅣ":101,"가":102,"각":103,"간":104,"갈":105,"감":106,"갑":107,"값":108,"갓":109,"갔":110,"강":111,"갖":112,"같":113,"개":114,"객":115,"갠":116,"갱":117,"걍":118,"거":119,"건":120,"걸":121,"검":122,"겁":123,"것":124,"겉":125,"게":126,"겐":127,"겟":128,"겠":129,"겨":130,"격":131,"견":132,"결":133,"겹":134,"겼":135,"경":136,"계":137,"고":138,"곡":139,"곤":140,"골":141,"곱":142,"곳":143,"공":144,"과":145,"관":146,"광":147,"괜":148,"괴":149,"굉":150,"교":151,"구":152,"국":153,"군":154,"굳":155,"굴":156,"굿":157,"궁":158,"권":159,"귀":160,"규":161,"균":162,"그":163,"극":164,"근":165,"글":166,"금":167,"급":168,"기":169,"긴":170,"길":171,"김":172,"깊":173,"까":174,"깎":175,"깐":176,"깔":177,"깜":178,"깝":179,"깨":180,"꺼":181,"껄":182,"껏":183,"께":184,"껴":185,"꼈":186,"꼬":187,"꼭":188,"꼴":189,"꼽":190,"꽃":191,"꽝":192,"꽤":193,"꾸":194,"꾼":195,"꿀":196,"꿈":197,"꿔":198,"뀌":199,"끄":200,"끈":201,"끊":202,"끌":203,"끔":204,"끝":205,"끼":206,"낀":207,"낄":208,"낌":209,"나":210,"낙":211,"낚":212,"난":213,"날":214,"남":215,"납":216,"낫":217,"났":218,"낭":219,"낮":220,"낳":221,"내":222,"낸":223,"낼":224,"냄":225,"냈":226,"냉":227,"냐":228,"냥":229,"너":230,"넌":231,"널":232,"넘":233,"넣":234,"네":235,"넷":236,"녀":237,"년":238,"념":239,"녕":240,"노":241,"녹":242,"논":243,"놀":244,"놈":245,"농":246,"높":247,"놓":248,"놔":249,"놨":250,"뇌":251,"누":252,"눈":253,"뉴":254,"느":255,"는":256,"늘":257,"늙":258,"능":259,"늦":260,"니":261,"닉":262,"닌":263,"닐":264,"님":265,"닙":266,"닝":267,"다":268,"닥":269,"단":270,"닫":271,"달":272,"닮":273,"담":274,"답":275,"당":276,"닿":277,"대":278,"댄":279,"댓":280,"더":281,"덕":282,"던":283,"덜":284,"덤":285,"덩":286,"데":287,"덴":288,"뎁":289,"도":290,"독":291,"돈":292,"돋":293,"돌":294,"동":295,"돼":296,"됐":297,"되":298,"된":299,"될":300,"됨":301,"됩":302,"됬":303,"두":304,"둘":305,"둥":306,"뒤":307,"뒷":308,"드":309,"득":310,"든":311,"듣":312,"들":313,"듬":314,"듭":315,"듯":316,"등":317,"디":318,"딘":319,"딧":320,"딩":321,"따":322,"딱":323,"딴":324,"딸":325,"땅":326,"때":327,"땐":328,"땜":329,"땡":330,"떄":331,"떠":332,"떡":333,"떤":334,"떨":335,"떻":336,"떼":337,"또":338,"똑":339,"똥":340,"뚝":341,"뚱":342,"뛰":343,"뜨":344,"뜩":345,"뜬":346,"뜻":347,"라":348,"락":349,"란":350,"랄":351,"람":352,"랍":353,"랐":354,"랑":355,"래":356,"랙":357,"랜":358,"램":359,"랫":360,"랬":361,"략":362,"량":363,"러":364,"럭":365,"런":366,"럴":367,"럼":368,"럽":369,"렁":370,"렇":371,"레":372,"렉":373,"렌":374,"려":375,"력":376,"련":377,"렬":378,"렵":379,"렷":380,"렸":381,"령":382,"례":383,"로":384,"록":385,"론":386,"롭":387,"롯":388,"롱":389,"뢰":390,"료":391,"룡":392,"루":393,"룬":394,"류":395,"륜":396,"률":397,"륭":398,"르":399,"른":400,"를":401,"름":402,"리":403,"릭":404,"린":405,"릴":406,"림":407,"립":408,"릿":409,"링":410,"마":411,"막":412,"만":413,"많":414,"말":415,"맘":416,"맙":417,"맛":418,"망":419,"맞":420,"맡":421,"매":422,"맥":423,"맨":424,"맹":425,"머":426,"먹":427,"먼":428,"멀":429,"멈":430,"멋":431,"멍":432,"메":433,"멘":434,"멜":435,"며":436,"면":437,"멸":438,"명":439,"몇":440,"모":441,"목":442,"몬":443,"몰":444,"몸":445,"못":446,"몽":447,"묘":448,"무":449,"묵":450,"문":451,"묻":452,"물":453,"뭉":454,"뭐":455,"뭔":456,"뭘":457,"뮤":458,"므":459,"미":460,"믹":461,"민":462,"믿":463,"밀":464,"밋":465,"밌":466,"밑":467,"바":468,"박":469,"밖":470,"반":471,"받":472,"발":473,"밝":474,"밤":475,"밥":476,"방":477,"배":478,"백":479,"뱀":480,"버":481,"번":482,"벌":483,"범":484,"법":485,"벗":486,"베":487,"벤":488,"벨":489,"벼":490,"벽":491,"변":492,"별":493,"볍":494,"병":495,"보":496,"복":497,"본":498,"볼":499,"봄":500,"봅":501,"봇":502,"봉":503,"봐":504,"봣":505,"봤":506,"부":507,"북":508,"분":509,"불":510,"붕":511,"붙":512,"뷰":513,"브":514,"븐":515,"블":516,"비":517,"빅":518,"빈":519,"빌":520,"빗":521,"빙":522,"빛":523,"빠":524,"빡":525,"빨":526,"빵":527,"빼":528,"뻐":529,"뻔":530,"뽀":531,"뽑":532,"뽕":533,"뿌":534,"뿐":535,"뿔":536,"쁘":537,"쁜":538,"쁨":539,"사":540,"삭":541,"산":542,"살":543,"삶":544,"삼":545,"상":546,"새":547,"색":548,"샘":549,"생":550,"샤":551,"서":552,"석":553,"섞":554,"선":555,"설":556,"섬":557,"섭":558,"섯":559,"성":560,"세":561,"섹":562,"센":563,"셀":564,"셈":565,"셉":566,"셔":567,"션":568,"셨":569,"소":570,"속":571,"손":572,"솔":573,"송":574,"쇼":575,"수":576,"숙":577,"순":578,"술":579,"숨":580,"숭":581,"쉬":582,"쉽":583,"슈":584,"스":585,"슨":586,"슬":587,"슴":588,"습":589,"슷":590,"승":591,"시":592,"식":593,"신":594,"실":595,"싫":596,"심":597,"십":598,"싱":599,"싶":600,"싸":601,"쌍":602,"써":603,"썩":604,"썼":605,"쎄":606,"쏘":607,"쓰":608,"쓴":609,"쓸":610,"씀":611,"씁":612,"씨":613,"씩":614,"씬":615,"씹":616,"아":617,"악":618,"안":619,"앉":620,"않":621,"알":622,"암":623,"압":624,"앗":625,"았":626,"앙":627,"앞":628,"애":629,"액":630,"앤":631,"야":632,"약":633,"양":634,"얘":635,"어":636,"억":637,"언":638,"얻":639,"얼":640,"엄":641,"업":642,"없":643,"엇":644,"었":645,"엉":646,"에":647,"엑":648,"엔":649,"엘":650,"엠":651,"여":652,"역":653,"연":654,"열":655,"염":656,"엽":657,"엿":658,"였":659,"영":660,"옆":661,"예":662,"옛":663,"오":664,"옥":665,"온":666,"올":667,"옴":668,"옷":669,"옹":670,"와":671,"완":672,"왓":673,"왔":674,"왕":675,"왜":676,"왠":677,"외":678,"요":679,"욕":680,"용":681,"우":682,"욱":683,"운":684,"울":685,"움":686,"웃":687,"웅":688,"워":689,"원":690,"월":691,"웠":692,"웨":693,"웬":694,"위":695,"윌":696,"유":697,"육":698,"윤":699,"율":700,"으":701,"은":702,"을":703,"음":704,"응":705,"의":706,"이":707,"익":708,"인":709,"일":710,"읽":711,"잃":712,"임":713,"입":714,"잇":715,"있":716,"잉":717,"잊":718,"자":719,"작":720,"잔":721,"잖":722,"잘":723,"잠":724,"잡":725,"잤":726,"장":727,"재":728,"잭":729,"잼":730,"쟁":731,"저":732,"적":733,"전":734,"절":735,"젊":736,"점":737,"접":738,"정":739,"제":740,"젠":741,"젤":742,"져":743,"졌":744,"조":745,"족":746,"존":747,"졸":748,"좀":749,"종":750,"좋":751,"좌":752,"죄":753,"죠":754,"주":755,"죽":756,"준":757,"줄":758,"줌":759,"줍":760,"중":761,"줘":762,"줬":763,"쥐":764,"쥬":765,"즈":766,"즌":767,"즐":768,"즘":769,"증":770,"지":771,"직":772,"진":773,"질":774,"짐":775,"집":776,"짓":777,"징":778,"짜":779,"짝":780,"짠":781,"짧":782,"짱":783,"째":784,"쩌":785,"쩐":786,"쩔":787,"쩜":788,"쩝":789,"쩡":790,"쪽":791,"쫌":792,"쯤":793,"쯧":794,"찌":795,"찍":796,"찝":797,"찡":798,"차":799,"착":800,"찬":801,"찮":802,"찰":803,"참":804,"창":805,"찾":806,"채":807,"책":808,"챙":809,"처":810,"척":811,"천":812,"철":813,"첨":814,"첩":815,"첫":816,"청":817,"체":818,"쳐":819,"쳤":820,"초":821,"촌":822,"총":823,"촬":824,"최":825,"쵝":826,"추":827,"축":828,"춘":829,"출":830,"춤":831,"충":832,"춰":833,"취":834,"츠":835,"측":836,"치":837,"칙":838,"친":839,"칠":840,"침":841,"칭":842,"카":843,"칸":844,"칼":845,"캐":846,"커":847,"컨":848,"컬":849,"컴":850,"컷":851,"케":852,"켜":853,"코":854,"콘":855,"콜":856,"콤":857,"콩":858,"쾌":859,"쿠":860,"퀄":861,"퀴":862,"큐":863,"크":864,"큰":865,"클":866,"큼":867,"키":868,"킨":869,"킬":870,"킹":871,"타":872,"탁":873,"탄":874,"탈":875,"탐":876,"탑":877,"탕":878,"태":879,"택":880,"터":881,"턴":882,"털":883,"테":884,"텐":885,"텔":886,"토":887,"톤":888,"톰":889,"톱":890,"통":891,"퇴":892,"투":893,"퉁":894,"튀":895,"트":896,"특":897,"튼":898,"틀":899,"틈":900,"티":901,"틱":902,"틴":903,"팀":904,"팅":905,"파":906,"팍":907,"판":908,"팔":909,"패":910,"팩":911,"팬":912,"퍼":913,"펐":914,"펑":915,"페":916,"펙":917,"펜":918,"편":919,"평":920,"폐":921,"포":922,"폭":923,"폰":924,"폴":925,"표":926,"푸":927,"푹":928,"풀":929,"품":930,"풋":931,"풍":932,"퓨":933,"프":934,"픈":935,"플":936,"픔":937,"피":938,"픽":939,"필":940,"하":941,"학":942,"한":943,"할":944,"함":945,"합":946,"항":947,"해":948,"핵":949,"햇":950,"했":951,"행":952,"향":953,"허":954,"헌":955,"헐":956,"험":957,"헛":958,"헤":959,"헬":960,"혀":961,"혁":962,"현":963,"혈":964,"혐":965,"협":966,"형":967,"혜":968,"호":969,"혹":970,"혼":971,"홀":972,"홍":973,"화":974,"확":975,"환":976,"활":977,"황":978,"회":979,"획":980,"효":981,"후":982,"훈":983,"훌":984,"훨":985,"휘":986,"휴":987,"흉":988,"흐":989,"흑":990,"흔":991,"흘":992,"흠":993,"흡":994,"흥":995,"희":996,"히":997,"힌":998,"힐":999,"힘":1000,"서</w>":1001,"다</w>":1002,"접</w>":1003,"풍</w>":1004,"요</w>":1005,"로</w>":1006,"걸</w>":1007,"국</w>":1008,"함</w>":1009,"이</w>":1010,"면</w>":1011,"의</w>":1012,"나</w>":1013,"어</w>":1014,"를</w>":1015,"곡</w>":1016,"을</w>":1017,"고</w>":1018,"랑</w>":1019,"점</w>":1020,"님</w>":1021,"기</w>":1022,"늘</w>":1023,"화</w>":1024,"한</w>":1025,"는</w>":1026,"군</w>":1027,"스</w>":1028,"중</w>":1029,"네</w>":1030,"가</w>":1031,"은</w>":1032,"성</w>":1033,"데</w>":1034,"워</w>":1035,"극</w>":1036,"자</w>":1037,"씨</w>":1038,"긴</w>":1039,"건</w>":1040,"I</w>":1041,"에</w>":1042,"니</w>":1043,"m</w>":1044,"지</w>":1045,"도</w>":1046,"날</w>":1047,"창</w>":1048,"리</w>":1049,"와</w>":1050,"냐</w>":1051,"란</w>":1052,"좀</w>":1053,"며</w>":1054,"음</w>":1055,"김</w>":1056,"릴</w>":1057,"게</w>":1058,"들</w>":1059,"장</w>":1060,"대</w>":1061,"차</w>":1062,"만</w>":1063,"짱</w>":1064,"히</w>":1065,"결</w>":1066,"역</w>":1067,"체</w>":1068,"별</w>":1069,"합</w>":1070,"살</w>":1071,"1</w>":1072,"작</w>":1073,"라</w>":1074,"운</w>":1075,"난</w>":1076,"련</w>":1077,"과</w>":1078,"것</w>":1079,"듯</w>":1080,"송</w>":1081,"껄</w>":1082,"력</w>":1083,"터</w>":1084,"종</w>":1085,"연</w>":1086,"상</w>":1087,"일</w>":1088,"년</w>":1089,"출</w>":1090,"든</w>":1091,"량</w>":1092,"말</w>":1093,"야</w>":1094,"트</w>":1095,"수</w>":1096,"진</w>":1097,"구</w>":1098,"써</w>":1099,"여</w>":1100,"혜</w>":1101,"물</w>":1102,"마</w>":1103,"옴</w>":1104,"던</w>":1105,"길</w>":1106,"래</w>":1107,"림</w>":1108,"따</w>":1109,"ㅋ</w>":1110,"뻐</w>":1111,"유</w>":1112,"반</w>":1113,"싱</w>":1114,"짜</w>":1115,"해</w>":1116,"정</w>":1117,"♥</w>":1118,"뿐</w>":1119,"슨</w>":1120,"듬</w>":1121,"된</w>":1122,"인</w>":1123,"쉬</w>":1124,"단</w>":1125,"메</w>":1126,"쥐</w>":1127,"까</w>":1128,"비</w>":1129,"똥</w>":1130,"폴</w>":1131,"효</w>":1132,"입</w>":1133,"봐</w>":1134,"범</w>":1135,"남</w>":1136,"첨</w>":1137,"급</w>":1138,"죠</w>":1139,"할</w>":1140,"당</w>":1141,"줄</w>":1142,"놈</w>":1143,"a</w>":1144,"택</w>":1145,"형</w>":1146,"아</w>":1147,"엔</w>":1148,"ㅇ</w>":1149,"u</w>":1150,"간</w>":1151,"포</w>":1152,"ㅡ</w>":1153,"웠</w>":1154,"내</w>":1155,"분</w>":1156,"7</w>":1157,"크</w>":1158,"본</w>":1159,"담</w>":1160,"절</w>":1161,"낌</w>":1162,"시</w>":1163,"명</w>":1164,"e</w>":1165,"ㅠ</w>":1166,"져</w>":1167,"켜</w>":1168,"순</w>":1169,"빠</w>":1170,"조</w>":1171,"거</w>":1172,"우</w>":1173,"몽</w>":1174,"색</w>":1175,"번</w>":1176,"헌</w>":1177,"표</w>":1178,"잼</w>":1179,"봄</w>":1180,"끈</w>":1181,"잉</w>":1182,"용</w>":1183,"테</w>":1184,"염</w>":1185,"록</w>":1186,"즈</w>":1187,"닌</w>":1188,"2</w>":1189,"졸</w>":1190,"쇼</w>":1191,"임</w>":1192,"적</w>":1193,"럼</w>":1194,"생</w>":1195,"개</w>":1196,"사</w>":1197,"퍼</w>":1198,"학</w>":1199,"질</w>":1200,"븐</w>":1201,"줌</w>":1202,"굿</w>":1203,"타</w>":1204,"때</w>":1205,"궁</w>":1206,"신</w>":1207,"무</w>":1208,"0</w>":1209,"준</w>":1210,"처</w>":1211,"혹</w>":1212,"등</w>":1213,"채</w>":1214,"깐</w>":1215,"움</w>":1216,"향</w>":1217,"능</w>":1218,"런</w>":1219,"더</w>":1220,"큼</w>":1221,"ㅎ</w>":1222,"안</w>":1223,"실</w>":1224,"독</w>":1225,"감</w>":1226,"s</w>":1227,"세</w>":1228,"킨</w>":1229,"영</w>":1230,"냥</w>":1231,"미</w>":1232,"방</w>":1233,"른</w>":1234,"식</w>":1235,"린</w>":1236,"b</w>":1237,"러</w>":1238,"산</w>":1239,"z</w>":1240,"선</w>":1241,"t</w>":1242,"션</w>":1243,"원</w>":1244,"낀</w>":1245,"드</w>":1246,"벨</w>":1247,"넘</w>":1248,"T</w>":1249,"존</w>":1250,"n</w>":1251,"ㅜ</w>":1252,"꿀</w>":1253,"론</w>":1254,"통</w>":1255,"전</w>":1256,"태</w>":1257,"호</w>":1258,"디</w>":1259,"퀄</w>":1260,"께</w>":1261,"동</w>":1262,"r</w>":1263,"퀴</w>":1264,"문</w>":1265,"답</w>":1266,"씀</w>":1267,"망</w>":1268,"심</w>":1269,"위</w>":1270,"몬</w>":1271,"두</w>":1272,"천</w>":1273,"칭</w>":1274,"글</w>":1275,"ㄷ</w>":1276,"모</w>":1277,"쳐</w>":1278,"후</w>":1279,"부</w>":1280,"양</w>":1281,"웃</w>":1282,"휴</w>":1283,"왜</w>":1284,"셈</w>":1285,"약</w>":1286,"소</w>":1287,"o</w>":1288,"보</w>":1289,"루</w>":1290,"됨</w>":1291,"껏</w>":1292,"쏘</w>":1293,"짐</w>":1294,"제</w>":1295,"승</w>":1296,"증</w>":1297,"불</w>":1298,"피</w>":1299,"억</w>":1300,"g</w>":1301,"박</w>":1302,"C</w>":1303,"치</w>":1304,"파</w>":1305,"뻔</w>":1306,"끼</w>":1307,"삼</w>":1308,"겐</w>":1309,"겨</w>":1310,"l</w>":1311,"친</w>":1312,"저</w>":1313,"념</w>":1314,"알</w>":1315,"웅</w>":1316,"슴</w>":1317,"슬</w>":1318,"탄</w>":1319,"엠</w>":1320,"y</w>":1321,"깔</w>":1322,"족</w>":1323,"닥</w>":1324,"착</w>":1325,"달</w>":1326,"밤</w>":1327,"슈</w>":1328,"경</w>":1329,"욱</w>":1330,"낸</w>":1331,"새</w>":1332,"찮</w>":1333,"팅</w>":1334,"환</w>":1335,"넌</w>":1336,"빈</w>":1337,"북</w>":1338,"혀</w>":1339,"직</w>":1340,"값</w>":1341,"업</w>":1342,"씩</w>":1343,"ㅉ</w>":1344,"코</w>":1345,"훈</w>":1346,"될</w>":1347,"쾌</w>":1348,"공</w>":1349,"평</w>":1350,"ㄹ</w>":1351,"♡</w>":1352,"료</w>":1353,"광</w>":1354,"또</w>":1355,"d</w>":1356,"추</w>":1357,"판</w>":1358,"갈</w>":1359,"오</w>":1360,"참</w>":1361,"충</w>":1362,"석</w>":1363,"머</w>":1364,"k</w>":1365,"브</w>":1366,"엉</w>":1367,"품</w>":1368,"희</w>":1369,"랙</w>":1370,"땜</w>":1371,"같</w>":1372,"법</w>":1373,"걍</w>":1374,"8</w>":1375,"O</w>":1376,"ㅂ</w>":1377,"격</w>":1378,"르</w>":1379,"놔</w>":1380,"홍</w>":1381,"엇</w>":1382,"램</w>":1383,"펑</w>":1384,"꺼</w>":1385,"뇌</w>":1386,"편</w>":1387,"ㄱ</w>":1388,"척</w>":1389,"막</w>":1390,"락</w>":1391,"율</w>":1392,"발</w>":1393,"려</w>":1394,"초</w>":1395,"뚝</w>":1396,"낄</w>":1397,"납</w>":1398,"견</w>":1399,"속</w>":1400,"현</w>":1401,"온</w>":1402,"죄</w>":1403,"쟁</w>":1404,"팀</w>":1405,"잭</w>":1406,"목</w>":1407,"침</w>":1408,"뽀</w>":1409,"3</w>":1410,"주</w>":1411,"탕</w>":1412,"람</w>":1413,"닉</w>":1414,"힌</w>":1415,"닝</w>":1416,"하</w>":1417,"괴</w>":1418,"빙</w>":1419,"벌</w>":1420,"집</w>":1421,"곳</w>":1422,"픽</w>":1423,"혐</w>":1424,"암</w>":1425,"c</w>":1426,"맨</w>":1427,"커</w>":1428,"벽</w>":1429,"곤</w>":1430,"x</w>":1431,"옷</w>":1432,"술</w>":1433,"강</w>":1434,"악</w>":1435,"권</w>":1436,"으</w>":1437,"플</w>":1438,"케</w>":1439,"p</w>":1440,"맹</w>":1441,"병</w>":1442,"떠</w>":1443,"느</w>":1444,"%</w>":1445,"령</w>":1446,"름</w>":1447,"딸</w>":1448,"4</w>":1449,"찬</w>":1450,"뿔</w>":1451,"빵</w>":1452,"민</w>":1453,"재</w>":1454,"댄</w>":1455,"섭</w>":1456,"쪽</w>":1457,"티</w>":1458,"9</w>":1459,"룬</w>":1460,"샘</w>":1461,"힘</w>":1462,"바</w>":1463,"각</w>":1464,"활</w>":1465,"굴</w>":1466,"쓴</w>":1467,"잔</w>":1468,"쯤</w>":1469,"회</w>":1470,"징</w>":1471,"략</w>":1472,"뢰</w>":1473,"옥</w>":1474,"돌</w>":1475,"링</w>":1476,"몰</w>":1477,"숙</w>":1478,"ㅁ</w>":1479,"씬</w>":1480,"튼</w>":1481,"그</w>":1482,"h</w>":1483,"있</w>":1484,"밀</w>":1485,"땐</w>":1486,"되</w>":1487,"류</w>":1488,"탈</w>":1489,"픈</w>":1490,"쩜</w>":1491,"뭐</w>":1492,"X</w>":1493,"키</w>":1494,"쓰</w>":1495,"헐</w>":1496,"싸</w>":1497,"밑</w>":1498,"퉁</w>":1499,"킹</w>":1500,"텐</w>":1501,"프</w>":1502,"습</w>":1503,"매</w>":1504,"계</w>":1505,"블</w>":1506,"삭</w>":1507,"빨</w>":1508,"녕</w>":1509,"큐</w>":1510,"변</w>":1511,"f</w>":1512,"돼</w>":1513,"렌</w>":1514,"괜</w>":1515,"노</w>":1516,"볼</w>":1517,"먼</w>":1518,"째</w>":1519,"금</w>":1520,"덕</w>":1521,"관</w>":1522,"i</w>":1523,"랄</w>":1524,"득</w>":1525,"겹</w>":1526,"ㅣ</w>":1527,"펙</w>":1528,"버</w>":1529,"축</w>":1530,"복</w>":1531,"봉</w>":1532,"5</w>":1533,"외</w>":1534,"엘</w>":1535,"낼</w>":1536,"토</w>":1537,"흠</w>":1538,"쩌</w>":1539,"ㅗ</w>":1540,"녀</w>":1541,"꼬</w>":1542,"밥</w>":1543,"돈</w>":1544,"딱</w>":1545,"헤</w>":1546,"N</w>":1547,"ㄴ</w>":1548,"설</w>":1549,"럴</w>":1550,"앙</w>":1551,"곱</w>":1552,"잘</w>":1553,"w</w>":1554,"ㅏ</w>":1555,"눈</w>":1556,"젤</w>":1557,"뜻</w>":1558,"쿠</w>":1559,"월</w>":1560,"ㅅ</w>":1561,"힐</w>":1562,"칸</w>":1563,"털</w>":1564,"춤</w>":1565,"언</w>":1566,"뜩</w>":1567,"푹</w>":1568,"죽</w>":1569,"칠</w>":1570,"배</w>":1571,"★</w>":1572,"흑</w>":1573,"쩝</w>":1574,"떄</w>":1575,"턴</w>":1576,"뒤</w>":1577,"꿈</w>":1578,"패</w>":1579,"떼</w>":1580,"규</w>":1581,"울</w>":1582,"카</w>":1583,"젠</w>":1584,"았</w>":1585,"므</w>":1586,"ㅈ</w>":1587,"믹</w>":1588,"꼭</w>":1589,"폰</w>":1590,"올</w>":1591,"꽝</w>":1592,"좋</w>":1593,"딧</w>":1594,"교</w>":1595,"E</w>":1596,"멀</w>":1597,"혼</w>":1598,"렉</w>":1599,"줘</w>":1600,"항</w>":1601,"~</w>":1602,"취</w>":1603,"큰</w>":1604,"떤</w>":1605,"셔</w>":1606,"너</w>":1607,"꽃</w>":1608,"촌</w>":1609,"봇</w>":1610,"틈</w>":1611,"필</w>":1612,"맛</w>":1613,"립</w>":1614,"엽</w>":1615,"애</w>":1616,"휘</w>":1617,"껴</w>":1618,"짓</w>":1619,"열</w>":1620,"찰</w>":1621,"깝</w>":1622,"밋</w>":1623,"6</w>":1624,"렷</w>":1625,"F</w>":1626,"널</w>":1627,"겁</w>":1628,"렵</w>":1629,"혁</w>":1630,"릭</w>":1631,"끔</w>":1632,"찌</w>":1633,"레</w>":1634,"굳</w>":1635,"못</w>":1636,"킬</w>":1637,"벗</w>":1638,"흥</w>":1639,"둥</w>":1640,"겼</w>":1641,"액</w>":1642,"풀</w>":1643,"컷</w>":1644,"센</w>":1645,"황</w>":1646,"특</w>":1647,"확</w>":1648,"렁</w>":1649,"끌</w>":1650,"솔</w>":1651,"객</w>":1652,"근</w>":1653,"꾸</w>":1654,"쩐</w>":1655,"S</w>":1656,"춘</w>":1657,"캐</w>":1658,"왕</w>":1659,"텔</w>":1660,"먹</w>":1661,"떡</w>":1662,"콤</w>":1663,"잠</w>":1664,"골</w>":1665,"톤</w>":1666,"백</w>":1667,"귀</w>":1668,"례</w>":1669,"총</w>":1670,"삶</w>":1671,"익</w>":1672,"투</w>":1673,"완</w>":1674,"컨</w>":1675,"찡</w>":1676,"끝</w>":1677,"K</w>":1678,"허</w>":1679,"잇</w>":1680,"틴</w>":1681,"즘</w>":1682,"G</w>":1683,"뱀</w>":1684,"획</w>":1685,"짝</w>":1686,"컴</w>":1687,"압</w>":1688,"손</w>":1689,"츠</w>":1690,"뮤</w>":1691,"j</w>":1692,"틱</w>":1693,"쌍</w>":1694,"험</w>":1695,"옹</w>":1696,"넷</w>":1697,"덤</w>":1698,"딩</w>":1699,"콜</w>":1700,"풋</w>":1701,"윤</w>":1702,"엄</w>":1703,"웬</w>":1704,"했</w>":1705,"페</w>":1706,"v</w>":1707,"행</w>":1708,"팔</w>":1709,"찍</w>":1710,"D</w>":1711,"균</w>":1712,"논</w>":1713,"섬</w>":1714,"검</w>":1715,"콩</w>":1716,"쎄</w>":1717,"잡</w>":1718,"예</w>":1719,"묵</w>":1720,"냄</w>":1721,"협</w>":1722,"철</w>":1723,"칙</w>":1724,"책</w>":1725,"베</w>":1726,"측</w>":1727,"청</w>":1728,"빛</w>":1729,"응</w>":1730,"밖</w>":1731,"흐</w>":1732,"몇</w>":1733,"왠</w>":1734,"빗</w>":1735,"^</w>":1736,"얘</w>":1737,"욕</w>":1738,"롱</w>":1739,"룡</w>":1740,"덩</w>":1741,"낫</w>":1742,"클</w>":1743,"딴</w>":1744,"쥬</w>":1745,"펜</w>":1746,"쁜</w>":1747,"렇</w>":1748,"쁨</w>":1749,"갑</w>":1750,"홀</w>":1751,",</w>":1752,"웨</w>":1753,"렬</w>":1754,"팬</w>":1755,"뚱</w>":1756,"벤</w>":1757,"즐</w>":1758,"낮</w>":1759,"맘</w>":1760,"륭</w>":1761,"꾼</w>":1762,"럭</w>":1763,"좌</w>":1764,"셉</w>":1765,"얼</w>":1766,"탁</w>":1767,"낭</w>":1768,"짠</w>":1769,"빼</w>":1770,"뜨</w>":1771,"M</w>":1772,"쁘</w>":1773,"R</w>":1774,"누</w>":1775,"엑</w>":1776,"셀</w>":1777,"폭</w>":1778,"꼴</w>":1779,"틀</w>":1780,"땅</w>":1781,"섯</w>":1782,"률</w>":1783,"멍</w>":1784,"멸</w>":1785,"흡</w>":1786,"였</w>":1787,"꼽</w>":1788,"뽕</w>":1789,"끄</w>":1790,"V</w>":1791,"쩡</w>":1792,"최</w>":1793,"멋</w>":1794,"낙</w>":1795,"탐</w>":1796,"B</w>":1797,"A</w>":1798,"첩</w>":1799,"콘</w>":1800,"붕</w>":1801,"슷</w>":1802,"쫌</w>":1803,"옆</w>":1804,"즌</w>":1805,"꽤</w>":1806,"픔</w>":1807,"엿</w>":1808,"P</w>":1809,"땡</w>":1810,"쯧</w>":1811,"칼</w>":1812,"앗</w>":1813,"릿</w>":1814,"!</w>":1815,"컬</w>":1816,"빌</w>":1817,"+</w>":1818,"놀</w>":1819,"었</w>":1820,"훌</w>":1821,"둘</w>":1822,"톰</w>":1823,"싶</w>":1824,"뜬</w>":1825,"랜</w>":1826,"멘</w>":1827,"뎁</w>":1828,"냉</w>":1829,"L</w>":1830,"얻</w>":1831,"톱</w>":1832,"퇴</w>":1833,"갓</w>":1834,"닐</w>":1835,"멜</w>":1836,"찝</w>":1837,"흘</w>":1838,"십</w>":1839,"벼</w>":1840,"춰</w>":1841,"밌</w>":1842,"앞</w>":1843,"뷰</w>":1844,"딘</w>":1845,"첫</w>":1846,"?</w>":1847,"쵝</w>":1848,"@</w>":1849,"럽</w>":1850,"혈</w>":1851,"탑</w>":1852,"륜</w>":1853,"숨</w>":1854,"육</w>":1855,"덴</w>":1856,"헛</w>":1857,"훨</w>":1858,"팍</w>":1859,"덜</w>":1860,"댓</w>":1861,"숭</w>":1862,"쉽</w>":1863,"랐</w>":1864,"뉴</w>":1865,"않</w>":1866,"쓸</w>":1867,".</w>":1868,":</w>":1869,"롯</w>":1870,"팩</w>":1871,"샤</w>":1872,"뭔</w>":1873,"깜</w>":1874,"뭘</w>":1875,"봤</w>":1876,"멈</w>":1877,"봅</w>":1878,"몸</w>":1879,"묻</w>":1880,"폐</w>":1881,"농</w>":1882,"앤</w>":1883,"롭</w>":1884,"똑</w>":1885,"맥</w>":1886,"쩔</w>":1887,";</w>":1888,"왓</w>":1889,"없</w>":1890,"섹</w>":1891,"갱</w>":1892,"묘</w>":1893,"높</w>":1894,"헬</w>":1895,"꿔</w>":1896,"푸</w>":1897,"겟</w>":1898,"퓨</w>":1899,"깨</w>":1900,"/</w>":1901,"맞</w>":1902,"붙</w>":1903,"흔</w>":1904,"듣</w>":1905,"튀</w>":1906,"촬</w>":1907,"졌</w>":1908,"닫</w>":1909,"많</w>":1910,"흉</w>":1911,"빅</w>":1912,"썩</w>":1913,"랫</w>":1914,"뀌</w>":1915,"겠</w>":1916,"젊</w>":1917,"`</w>":1918,"랍</w>":1919,"*</w>":1920,"낚</w>":1921,"듭</w>":1922,"=</w>":1923,"빡</w>":1924,"'</w>":1925,"햇</w>":1926,"씁</w>":1927,")</w>":1928,"읽</w>":1929,"핵</w>":1930,"됩</w>":1931,"싫</w>":1932,"_</w>":1933,"줬</w>":1934,"[</w>":1935,"]</w>":1936,"(</w>":1937,"윌</w>":1938,"깊</w>":1939,"닙</w>":1940,"뒷</w>":1941,"녹</w>":1942,"났</w>":1943,"뿌</w>":1944,"씹</w>":1945,"\"</w>":1946,"옛</w>":1947,"떨</w>":1948,"&</w>":1949,"<</w>":1950,"갖</w>":1951,"></w>":1952,"돋</w>":1953,"-</w>":1954,"잤</w>":1955,"닿</w>":1956,"겉</w>":1957,"영화":1958,"영화</w>":1959,"ㅋㅋ":1960,"니다</w>":1961,"는데</w>":1962,"재미":1963,"지만</w>":1964,"하고</w>":1965,"너무</w>":1966,"재밌":1967,"정말</w>":1968,"네요</w>":1969,"으로</w>":1970,"진짜</w>":1971,"에서</w>":1972,"연기":1973,"하는</w>":1974,"생각":1975,"스토":1976,"어요</w>":1977,"드라":1978,"이다</w>":1979,"습니다</w>":1980,"최고":1981,"ㅋㅋ</w>":1982,"하다</w>":1983,"사람":1984,"배우":1985,"보고</w>":1986,"ㅋㅋㅋㅋ":1987,"평점":1988,"지루":1989,"만들":1990,"아니":1991,"10":1992,"재미있":1993,"없는</w>":1994,"감동":1995,"하게</w>":1996,"들이</w>":1997,"없다</w>":1998,"그냥</w>":1999,"영화를</w>":2000,"내용":2001,"보다</w>":2002,"스토리":2003,"까지</w>":2004,"이런</w>":2005,"이라":2006,"영화는</w>":2007,"너무":2008,"쓰레":2009,"감독":2010,"영화가</w>":2011,"었다</w>":2012,"해서</w>":2013,"나오":2014,"좋아":2015,"사랑":2016,"하는":2017,"있는</w>":2018,"봤는데</w>":2019,"시간":2020,"적인</w>":2021,"면서</w>":2022,"리고</w>":2023,"렇게</w>":2024,"마지":2025,"드라마":2026,"다는</w>":2027,"다가</w>":2028,"좋았":2029,"보고":2030,"드라마</w>":2031,"재미없":2032,"으면</w>":2033,"입니다</w>":2034,"이런":2035,"같은</w>":2036,"주인":2037,"들의</w>":2038,"ㅠㅠ</w>":2039,"기대":2040,"아깝":2041,"다고</w>":2042,"모르":2043,"이야":2044,"라고</w>":2045,"최고의</w>":2046,"내가</w>":2047,"이건</w>":2048,"지는</w>":2049,"연기</w>":2050,"하지만</w>":2051,"보는</w>":2052,"하나":2053,"이렇게</w>":2054,"ㅋㅋㅋ</w>":2055,"없고</w>":2056,"보는":2057,"아이":2058,"아까":2059,"평점</w>":2060,"적이":2061,"액션":2062,"이거</w>":2063,"그래":2064,"세요</w>":2065,"들은</w>":2066,"이해":2067,"장면":2068,"이게</w>":2069,"봐도</w>":2070,"정도":2071,"완전</w>":2072,"어서</w>":2073,"보면</w>":2074,"그리고</w>":2075,"으로":2076,"한다</w>":2077,"좋은</w>":2078,"합니다</w>":2079,"처음":2080,"인데</w>":2081,"OO":2082,"했다</w>":2083,"기억":2084,"한국":2085,"작품":2086,"괜찮":2087,"쓰레기":2088,"스토리</w>":2089,"겠다</w>":2090,"없이</w>":2091,"적으로</w>":2092,"때문":2093,"부터</w>":2094,"ㅎㅎ</w>":2095,"하지</w>":2096,"주는</w>":2097,"되는</w>":2098,"지도</w>":2099,"평점이</w>":2100,"다시</w>":2101,"최고</w>":2102,"아름":2103,"주인공":2104,"역시</w>":2105,"보여":2106,"최악":2107,"나는</w>":2108,"이상":2109,"것도</w>":2110,"ㅡㅡ</w>":2111,"우리":2112,"여자":2113,"다면</w>":2114,"쓰레기</w>":2115,"대로</w>":2116,"에게</w>":2117,"이나</w>":2118,"하나</w>":2119,"같다</w>":2120,"마지막":2121,"많이</w>":2122,"ㅠㅠ":2123,"있다</w>":2124,"현실":2125,"내내</w>":2126,"지금":2127,"1점":2128,"다시":2129,"는게</w>":2130,"때문에</w>":2131,"영화다</w>":2132,"아깝다</w>":2133,"마음":2134,"유치":2135,"있었":2136,"공포":2137,"말이</w>":2138,"하면</w>":2139,"연출":2140,"에서":2141,"하고":2142,"은데</w>":2143,"20":2144,"재밌게</w>":2145,"라는</w>":2146,"아무":2147,"볼만":2148,"몰입":2149,"지않":2150,"만에</w>":2151,"는지</w>":2152,"만드":2153,"짜증":2154,"재밋":2155,"느낌":2156,"스릴":2157,"영화의</w>":2158,"진짜":2159,"소재":2160,"았다</w>":2161,"필요":2162,"ㅋㅋㅋㅋㅋㅋㅋㅋ":2163,"그런":2164,"이야기":2165,"남자":2166,"인간":2167,"대한</w>":2168,"다니</w>":2169,"극장":2170,"매력":2171,"아서</w>":2172,"코미":2173,"스럽":2174,"을까</w>":2175,"솔직":2176,"명작":2177,"일본":2178,"리는</w>":2179,"정말":2180,"작품</w>":2181,"가는</w>":2182,"니까</w>":2183,"애니":2184,"였다</w>":2185,"마지막</w>":2186,"구나</w>":2187,"싶다</w>":2188,"눈물":2189,"무슨</w>":2190,"만든</w>":2191,"봤다</w>":2192,"가장</w>":2193,"이고</w>":2194,"보기":2195,"스러":2196,"인지</w>":2197,"캐릭":2198,"아름다":2199,"했는데</w>":2200,"반전":2201,"영상":2202,"가슴":2203,"인가</w>":2204,"만들어":2205,"처럼</w>":2206,"에는</w>":2207,"었는데</w>":2208,"나서</w>":2209,"원작":2210,"10점":2211,"중에</w>":2212,"는다</w>":2213,"별로":2214,"지마":2215,"는거":2216,"전개":2217,"아닌":2218,"10점</w>":2219,"시리":2220,"음악":2221,"다른</w>":2222,"메이":2223,"수준":2224,"시간</w>":2225,"끝까지</w>":2226,"이거":2227,"그렇":2228,"여운":2229,"는데":2230,"대체</w>":2231,"솔직히</w>":2232,"어떻":2233,"인생":2234,"별로</w>":2235,"좋다</w>":2236,"긴장":2237,"없음</w>":2238,"지고</w>":2239,"하기":2240,"그래도</w>":2241,"자체":2242,"떨어":2243,"들을</w>":2244,"건지</w>":2245,"감독</w>":2246,"부분":2247,"개봉":2248,"나도</w>":2249,"려고</w>":2250,"영화에</w>":2251,"이야기</w>":2252,"ㅋㅋㅋㅋ</w>":2253,"안되":2254,"않고</w>":2255,"주고</w>":2256,"수가</w>":2257,"보다가</w>":2258,"나왔":2259,"그러":2260,"대단":2261,"라도</w>":2262,"것이</w>":2263,"억지":2264,"가족":2265,"보이":2266,"된다</w>":2267,"아직":2268,"지금</w>":2269,"근데</w>":2270,"정도</w>":2271,"했던</w>":2272,"많은</w>":2273,"웃기":2274,"표현":2275,"만든":2276,"하네요</w>":2277,"이랑</w>":2278,"연기가</w>":2279,"밖에</w>":2280,"아요</w>":2281,"감동</w>":2282,"나오는</w>":2283,"만들었":2284,"전혀</w>":2285,"느낌</w>":2286,"아니다</w>":2287,"0년":2288,"에도</w>":2289,"잔잔":2290,"수록</w>":2291,"아주</w>":2292,"있고</w>":2293,"공감":2294,"뭔가</w>":2295,"재미</w>":2296,"좋은":2297,"모습":2298,"이었":2299,"실망":2300,"해도</w>":2301,"흥미":2302,"아쉽":2303,"전에</w>":2304,"있는":2305,"아니고</w>":2306,"어이":2307,"준다</w>":2308,"봤습니다</w>":2309,"느껴":2310,"아쉬":2311,"아니라</w>":2312,"나온":2313,"결말":2314,"중간":2315,"보면서</w>":2316,"연기도</w>":2317,"ㅜㅜ</w>":2318,"최악의</w>":2319,"개인":2320,"난다</w>":2321,"들어":2322,"봐야":2323,"다는":2324,"어떻게</w>":2325,"들도</w>":2326,"보고싶":2327,"캐릭터":2328,"제목":2329,"어디":2330,"스타":2331,"이라</w>":2332,"알았":2333,"제작":2334,"명작</w>":2335,"소리":2336,"무서":2337,"재밌다</w>":2338,"배우</w>":2339,"같이</w>":2340,"00":2341,"스트":2342,"나와":2343,"하네</w>":2344,"이걸</w>":2345,"정신":2346,"오랜":2347,"보니</w>":2348,"타임":2349,"차라":2350,"하는데</w>":2351,"것을</w>":2352,"대사":2353,"액션</w>":2354,"영화였":2355,"재미있게</w>":2356,"친구":2357,"한번</w>":2358,"재미없다</w>":2359,"무섭":2360,"모르겠":2361,"모두</w>":2362,"시나":2363,"아닌</w>":2364,"좋고</w>":2365,"이유":2366,"영화라고</w>":2367,"시간이</w>":2368,"어설":2369,"내용도</w>":2370,"알바":2371,"이라는</w>":2372,"완전":2373,"스터":2374,"재밌었":2375,"내용이</w>":2376,"차라리</w>":2377,"의미":2378,"특히</w>":2379,"따뜻":2380,"감독이</w>":2381,"영화입니다</w>":2382,"면서":2383,"배우들</w>":2384,"주인공</w>":2385,"시대":2386,"추천":2387,"로맨":2388,"해요</w>":2389,"부족":2390,"잼있":2391,"계속</w>":2392,"에요</w>":2393,"으나</w>":2394,"1점</w>":2395,"스토리가</w>":2396,"보세요</w>":2397,"훌륭":2398,"느끼":2399,"던데</w>":2400,"연기력":2401,"연출</w>":2402,"감독의</w>":2403,"거리":2404,"한번":2405,"아름다운</w>":2406,"이지</w>":2407,"시리즈":2408,"코미디":2409,"기도</w>":2410,"살아":2411,"기에</w>":2412,"감동적이":2413,"이라고</w>":2414,"시작":2415,"정도로</w>":2416,"우리나":2417,"만드는</w>":2418,"영화도</w>":2419,"출연":2420,"1편":2421,"기가</w>":2422,"배우들의</w>":2423,"시청":2424,"작가":2425,"무엇":2426,"스토리도</w>":2427,"끝나":2428,"세상":2429,"이야</w>":2430,"모든</w>":2431,"막장":2432,"봤어요</w>":2433,"슬프":2434,"한데</w>":2435,"제대로</w>":2436,"않은</w>":2437,"자신":2438,"영화로</w>":2439,"아직도</w>":2440,"노래":2441,"제일</w>":2442,"어도</w>":2443,"답답":2444,"감정":2445,"내용</w>":2446,"성이</w>":2447,"신선":2448,"마다</w>":2449,"없는":2450,"시나리":2451,"하면서</w>":2452,"인듯</w>":2453,"을때</w>":2454,"행복":2455,"진다</w>":2456,"얼마":2457,"영화라":2458,"재밌어요</w>":2459,"기는</w>":2460,"만한</w>":2461,"보기</w>":2462,"보다":2463,"한테</w>":2464,"장난":2465,"캐스":2466,"분위":2467,"도대체</w>":2468,"군요</w>":2469,"만큼</w>":2470,"없었":2471,"지가</w>":2472,"이제":2473,"하시":2474,"아까운</w>":2475,"같은":2476,"그런</w>":2477,"미국":2478,"더라</w>":2479,"않는</w>":2480,"다른":2481,"돌아":2482,"좋았다</w>":2483,"ㅎㅎ":2484,"해야":2485,"으로도</w>":2486,"듯한</w>":2487,"이란</w>":2488,"마지막에</w>":2489,"네요":2490,"리스":2491,"재미도</w>":2492,"엔딩":2493,"레이":2494,"진심</w>":2495,"해주":2496,"여운이</w>":2497,"기분":2498,"치는</w>":2499,"처음</w>":2500,"장면</w>":2501,"이제</w>":2502,"하게":2503,"나름</w>":2504,"안타":2505,"고싶":2506,"오랜만에</w>":2507,"기를</w>":2508,"이네</w>":2509,"만화":2510,"어색":2511,"관객":2512,"연기는</w>":2513,"영화중</w>":2514,"네이":2515,"어요":2516,"했지만</w>":2517,"더니</w>":2518,"인생</w>":2519,"전쟁":2520,"ㅋㅋㅋ":2521,"지루하고</w>":2522,"남는</w>":2523,"대박</w>":2524,"동안</w>":2525,"지말":2526,"킬링":2527,"보는내내</w>":2528,"사람</w>":2529,"나요</w>":2530,"왜이":2531,"좋아하는</w>":2532,"같아요</w>":2533,"귀여":2534,"최악</w>":2535,"애니메이":2536,"힘들":2537,"라이":2538,"안되는</w>":2539,"역사":2540,"추억":2541,"재밌게":2542,"봤던</w>":2543,"긴장감":2544,"이건":2545,"최고다</w>":2546,"뻔한</w>":2547,"이영화</w>":2548,"인상":2549,"않았":2550,"완벽":2551,"영화관":2552,"사람이</w>":2553,"위해</w>":2554,"보지마":2555,"이지만</w>":2556,"배경":2557,"아름답":2558,"문제":2559,"엄청":2560,"어린":2561,"개연":2562,"어울":2563,"스러운</w>":2564,"대박":2565,"요즘</w>":2566,"하기</w>":2567,"리가</w>":2568,"인물":2569,"까지":2570,"니다":2571,"치고</w>":2572,"진부":2573,"할수":2574,"허접":2575,"웃음":2576,"가서</w>":2577,"이네요</w>":2578,"프로":2579,"로운</w>":2580,"보게":2581,"유쾌":2582,"보단</w>":2583,"개인적으로</w>":2584,"절대</w>":2585,"다큐":2586,"사랑</w>":2587,"코미디</w>":2588,"모든":2589,"비디":2590,"것은</w>":2591,"아버":2592,"초반":2593,"보았":2594,"이쁘":2595,"그나":2596,"조금</w>":2597,"아무리</w>":2598,"보시":2599,"제발</w>":2600,"하며</w>":2601,"1점도</w>":2602,"구만</w>":2603,"강추</w>":2604,"고는</w>":2605,"이상</w>":2606,"보게</w>":2607,"이해가</w>":2608,"예술":2609,"나올":2610,"좋아요</w>":2611,"같은데</w>":2612,"생각이</w>":2613,"갈수록</w>":2614,"찾아":2615,"스릴러":2616,"그저</w>":2617,"얼마나</w>":2618,"나이":2619,"극장에서</w>":2620,"사회":2621,"영화인":2622,"봐서</w>":2623,"주제":2624,"는거</w>":2625,"들이":2626,"봐라</w>":2627,"후회":2628,"재미가</w>":2629,"엄청</w>":2630,"영화네요</w>":2631,"잔인":2632,"추천</w>":2633,"0년대</w>":2634,"궁금":2635,"어릴":2636,"그렇게</w>":2637,"싶은</w>":2638,"나게</w>":2639,"말이":2640,"했음</w>":2641,"후반":2642,"ㅉㅉ</w>":2643,"시키":2644,"언제":2645,"티비":2646,"가요</w>":2647,"소름":2648,"점은</w>":2649,"전개</w>":2650,"한마":2651,"라면</w>":2652,"충분":2653,"따라":2654,"킬링타임":2655,"한국</w>":2656,"모르겠다</w>":2657,"엄마":2658,"집중":2659,"주연":2660,"하나도</w>":2661,"면서도</w>":2662,"노잼</w>":2663,"순수":2664,"코믹":2665,"함을</w>":2666,"너무나</w>":2667,"그래서</w>":2668,"는건</w>":2669,"되었":2670,"불쌍":2671,"멋진</w>":2672,"텐데</w>":2673,"19":2674,"결국</w>":2675,"자기</w>":2676,"점이</w>":2677,"기억에</w>":2678,"비슷":2679,"건가</w>":2680,"구요</w>":2681,"평가":2682,"놓고</w>":2683,"함께</w>":2684,"수준</w>":2685,"설정":2686,"을듯</w>":2687,"재밌음</w>":2688,"것이다</w>":2689,"뛰어":2690,"는영화</w>":2691,"본다</w>":2692,"빠져":2693,"포스터":2694,"못한</w>":2695,"좋겠":2696,"지나":2697,"보여주":2698,"드는</w>":2699,"방송":2700,"아님</w>":2701,"위한</w>":2702,"사실":2703,"진정":2704,"감사":2705,"보는데</w>":2706,"없네</w>":2707,"사람들</w>":2708,"지루하다</w>":2709,"상상":2710,"수를</w>":2711,"내용은</w>":2712,"이름":2713,"장르":2714,"있는데</w>":2715,"지를</w>":2716,"어야</w>":2717,"충격":2718,"그나마</w>":2719,"당히</w>":2720,"오래":2721,"렸다</w>":2722,"어지":2723,"연기를</w>":2724,"상황":2725,"재미있었":2726,"OOO":2727,"다르":2728,"들에게</w>":2729,"괜찮은</w>":2730,"보지</w>":2731,"내가":2732,"인이</w>":2733,"보다는</w>":2734,"지루한</w>":2735,"봤지만</w>":2736,"이영화":2737,"길래</w>":2738,"더빙":2739,"매우</w>":2740,"ㄷㄷ</w>":2741,"성을</w>":2742,"오글":2743,"더럽":2744,"볼수":2745,"적이고</w>":2746,"당시</w>":2747,"들과</w>":2748,"여러":2749,"무슨":2750,"나와서</w>":2751,"영화임</w>":2752,"마음이</w>":2753,"대해</w>":2754,"웠다</w>":2755,"에게":2756,"해라</w>":2757,"굉장":2758,"비교":2759,"않는다</w>":2760,"전체":2761,"아니</w>":2762,"이는</w>":2763,"캐스팅":2764,"나온</w>":2765,"판타":2766,"귀엽":2767,"그냥":2768,"엉성":2769,"없었다</w>":2770,"눈물이</w>":2771,"2편":2772,"세계":2773,"가슴이</w>":2774,"같음</w>":2775,"나고</w>":2776,"지만":2777,"함이</w>":2778,"영화였다</w>":2779,"여자</w>":2780,"장면이</w>":2781,"있어서</w>":2782,"학교":2783,"봤음</w>":2784,"없어</w>":2785,"없어서</w>":2786,"이가</w>":2787,"재미없음</w>":2788,"사람들이</w>":2789,"200":2790,"간만에</w>":2791,"바로</w>":2792,"평론":2793,"사람은</w>":2794,"ㅜㅜ":2795,"어렸":2796,"이라도</w>":2797,"중국":2798,"영화인데</w>":2799,"자체가</w>":2800,"었던</w>":2801,"하려":2802,"많이":2803,"실화":2804,"야지</w>":2805,"기억이</w>":2806,"기다":2807,"자연":2808,"간다</w>":2809,"케이":2810,"주인공이</w>":2811,"얼굴":2812,"한마디":2813,"이라면</w>":2814,"그리":2815,"화려":2816,"시즌":2817,"다니":2818,"재밌고</w>":2819,"재밌는</w>":2820,"♥♥":2821,"있지만</w>":2822,"해서":2823,"한거":2824,"가지고</w>":2825,"리지</w>":2826,"되고</w>":2827,"스릴러</w>":2828,"린다</w>":2829,"마이":2830,"이었다</w>":2831,"중간에</w>":2832,"력이</w>":2833,"있음</w>":2834,"하겠":2835,"이게":2836,"시나리오":2837,"속에</w>":2838,"배우들이</w>":2839,"워서</w>":2840,"oo":2841,"어떤</w>":2842,"있을":2843,"사이":2844,"성도</w>":2845,"결말</w>":2846,"않다</w>":2847,"때마다</w>":2848,"소설":2849,"뭐야</w>":2850,"스토리는</w>":2851,"다음":2852,"머리":2853,"훨씬</w>":2854,"라서</w>":2855,"초딩":2856,"제가</w>":2857,"생각을</w>":2858,"아까움</w>":2859,"반전</w>":2860,"거의</w>":2861,"점대":2862,"감동도</w>":2863,"영화관에서</w>":2864,"나라":2865,"해지는</w>":2866,"스럽다</w>":2867,"대한":2868,"뭐지</w>":2869,"졸작</w>":2870,"30":2871,"독특":2872,"다운":2873,"다들</w>":2874,"있을까</w>":2875,"당신":2876,"여기":2877,"지도":2878,"학생":2879,"느낌이</w>":2880,"어쩌":2881,"이것":2882,"좋은데</w>":2883,"우리</w>":2884,"음악</w>":2885,"점을</w>":2886,"아쉽다</w>":2887,"그대로</w>":2888,"CG":2889,"많은":2890,"가능":2891,"든다</w>":2892,"사람들은</w>":2893,"도저":2894,"일본</w>":2895,"배우가</w>":2896,"비디오":2897,"가지</w>":2898,"누가</w>":2899,"어설픈</w>":2900,"것같":2901,"단순":2902,"오늘</w>":2903,"조금":2904,"지루하":2905,"ㅠㅠㅠㅠ":2906,"었음</w>":2907,"생각보다</w>":2908,"등장":2909,"자기":2910,"당시":2911,"상당히</w>":2912,"알고</w>":2913,"예쁘":2914,"한영화</w>":2915,"결말이</w>":2916,"버린</w>":2917,"옛날":2918,"건데</w>":2919,"대로":2920,"어른":2921,"괜찮았":2922,"수작</w>":2923,"허무":2924,"연기력</w>":2925,"시리즈</w>":2926,"가는":2927,"파이":2928,"지루함</w>":2929,"거지</w>":2930,"잖아</w>":2931,"감이</w>":2932,"도없고</w>":2933,"분들</w>":2934,"적이다</w>":2935,"다고":2936,"다는게</w>":2937,"가치":2938,"실망</w>":2939,"연히</w>":2940,"감동을</w>":2941,"우리나라</w>":2942,"아프":2943,"에선</w>":2944,"진정한</w>":2945,"ㅡㅡ":2946,"도가</w>":2947,"부터":2948,"으니</w>":2949,"나의</w>":2950,"스가</w>":2951,"있게</w>":2952,"이딴":2953,"보여주는</w>":2954,"개그":2955,"시절":2956,"존재":2957,"재미있어요</w>":2958,"그러나</w>":2959,"다만</w>":2960,"막장</w>":2961,"평점을</w>":2962,"잔잔한</w>":2963,"멋지":2964,"굉장히</w>":2965,"살인":2966,"기대</w>":2967,"려서</w>":2968,"할수</w>":2969,"년이</w>":2970,"안하고</w>":2971,"자가</w>":2972,"중요":2973,"교훈":2974,"기분</w>":2975,"모두":2976,"상영":2977,"시절</w>":2978,"진심":2979,"개도</w>":2980,"있어</w>":2981,"나온다</w>":2982,"감동적인</w>":2983,"이였":2984,"예고":2985,"잘못":2986,"지지</w>":2987,"짜리</w>":2988,"프랑":2989,"그런지</w>":2990,"수작":2991,"졌다</w>":2992,"전개가</w>":2993,"뭐냐</w>":2994,"확실":2995,"대사</w>":2996,"수도</w>":2997,"없네요</w>":2998,"ㅎㅎㅎ</w>":2999,"영상미":3000,"가고</w>":3001,"거나</w>":3002,"만큼":3003,"예상":3004,"요즘":3005,"화이":3006,"에서도</w>":3007,"201":3008,"몇번":3009,"일이</w>":3010,"겠지만</w>":3011,"관람":3012,"두번":3013,"땜에</w>":3014,"비해</w>":3015,"에로":3016,"이나":3017,"즐거":3018,"재밌네요</w>":3019,"ㅋㅋㅋㅋㅋㅋㅋㅋㅋㅋㅋㅋㅋㅋㅋㅋ":3020,"받아":3021,"소리</w>":3022,"재미는</w>":3023,"감독은</w>":3024,"쓰레기영화</w>":3025,"르는</w>":3026,"리를</w>":3027,"역시":3028,"이면</w>":3029,"재미있다</w>":3030,"요소":3031,"한게</w>":3032,"불편":3033,"생각</w>":3034,"누구":3035,"이후":3036,"하는게</w>":3037,"갑자기</w>":3038,"말도</w>":3039,"이러":3040,"장면은</w>":3041,"해주는</w>":3042,"몰랐":3043,"인의</w>":3044,"있었다</w>":3045,"평범":3046,"원작을</w>":3047,"이정도":3048,"좋네요</w>":3049,"안타깝":3050,"저는</w>":3051,"적인":3052,"하냐</w>":3053,"하는지</w>":3054,"에서는</w>":3055,"TV":3056,"남자</w>":3057,"성우":3058,"영화보다</w>":3059,"탄탄":3060,"이영화를</w>":3061,"하하":3062,"아닐":3063,"이하":3064,"던가</w>":3065,"미친":3066,"바라":3067,"봤네요</w>":3068,"카메":3069,"렇게":3070,"다가":3071,"볼만한</w>":3072,"되는":3073,"했어요</w>":3074,"만으로도</w>":3075,"100":3076,"겠지</w>":3077,"계속":3078,"존나</w>":3079,"한마디로</w>":3080,"말고</w>":3081,"시다</w>":3082,"가지":3083,"약간</w>":3084,"어느":3085,"좋아</w>":3086,"항상</w>":3087,"버리":3088,"어나":3089,"OO</w>":3090,"스의</w>":3091,"좀비":3092,"보이는</w>":3093,"애니</w>":3094,"코메":3095,"한심":3096,"배우들":3097,"워요</w>":3098,"을텐데</w>":3099,"하니</w>":3100,"되지</w>":3101,"os":3102,"저도</w>":3103,"했습니다</w>":3104,"까요</w>":3105,"정이</w>":3106,"좋음</w>":3107,"마음에</w>":3108,"그녀":3109,"어려":3110,"훌륭한</w>":3111,"충분히</w>":3112,"ㅠㅠㅠ</w>":3113,"봤는데":3114,"되어":3115,"애니메이션":3116,"애들":3117,"에겐</w>":3118,"최고의":3119,"나옴</w>":3120,"보는게</w>":3121,"우리나라":3122,"더욱</w>":3123,"ㅋㅋㅋㅋㅋ</w>":3124,"식상":3125,"영화라</w>":3126,"안타까":3127,"같네요</w>":3128,"라고":3129,"예요</w>":3130,"있어요</w>":3131,"나오고</w>":3132,"사랑을</w>":3133,"오늘":3134,"선택":3135,"얘기":3136,"여서</w>":3137,"헐리":3138,"처음부터</w>":3139,"긴장감</w>":3140,"관계":3141,"노잼":3142,"여주":3143,"인다</w>":3144,"흥행":3145,"이라니</w>":3146,"알았는데</w>":3147,"마무":3148,"영화로":3149,"영화중에</w>":3150,"거야</w>":3151,"훈훈":3152,"흥미진":3153,"도록</w>":3154,"했고</w>":3155,"모르고</w>":3156,"사는</w>":3157,"울었":3158,"전형":3159,"들아</w>":3160,"일단</w>":3161,"자극":3162,"그만</w>":3163,"서는</w>":3164,"성룡":3165,"이영화는</w>":3166,"해야</w>":3167,"캐릭터</w>":3168,"애니메이션</w>":3169,"주의":3170,"재미있는</w>":3171,"그림":3172,"점수":3173,"평점은</w>":3174,"또한</w>":3175,"으면서</w>":3176,"있어":3177,"좋겠다</w>":3178,"가슴</w>":3179,"내는</w>":3180,"머니":3181,"무조":3182,"안된다</w>":3183,"한거</w>":3184,"다시봐도</w>":3185,"낭비":3186,"아직</w>":3187,"이어":3188,"아닌가</w>":3189,"이냐</w>":3190,"어디서</w>":3191,"오글거":3192,"스럽고</w>":3193,"사라":3194,"알아":3195,"새로운</w>":3196,"부분이</w>":3197,"대한민":3198,"알았다</w>":3199,"그랬":3200,"낫다</w>":3201,"님의</w>":3202,"아빠":3203,"영상</w>":3204,"생각하게</w>":3205,"말로</w>":3206,"맘에</w>":3207,"이딴</w>":3208,"크리스":3209,"영화에서</w>":3210,"감동이</w>":3211,"소중":3212,"여전":3213,"유의</w>":3214,"이기":3215,"점점</w>":3216,"인간의</w>":3217,"시나리오</w>":3218,"나쁘":3219,"리얼":3220,"멍청":3221,"받았":3222,"진지":3223,"애들</w>":3224,"해준</w>":3225,"보고나":3226,"도는</w>":3227,"범죄":3228,"아저":3229,"오히":3230,"멜로":3231,"물론</w>":3232,"알려":3233,"으며</w>":3234,"고싶다</w>":3235,"립니다</w>":3236,"순간":3237,"초등":3238,"지마라</w>":3239,"뭐가</w>":3240,"지못":3241,"화면":3242,"깊은</w>":3243,"미안":3244,"신기":3245,"감성":3246,"것같다</w>":3247,"공포</w>":3248,"만의</w>":3249,"을때":3250,"조차</w>":3251,"주인공의</w>":3252,"몰입도</w>":3253,"이야기를</w>":3254,"그의</w>":3255,"하자":3256,"감상":3257,"이따":3258,"먹먹":3259,"이번":3260,"이것도</w>":3261,"했으면</w>":3262,"배우의</w>":3263,"끝내":3264,"네여</w>":3265,"느꼈":3266,"되어</w>":3267,"참신":3268,"이다":3269,"좋았어요</w>":3270,"따뜻한</w>":3271,"한듯</w>":3272,"평점에</w>":3273,"그게</w>":3274,"독립":3275,"라니</w>":3276,"연기에</w>":3277,"오히려</w>":3278,"가볍":3279,"거다</w>":3280,"할때</w>":3281,"만들어</w>":3282,"만족":3283,"스케":3284,"주는":3285,"엄청난</w>":3286,"걸작</w>":3287,"결혼":3288,"스를</w>":3289,"싫어":3290,"중반":3291,"진행":3292,"재미없는</w>":3293,"구성":3294,"말아":3295,"먹고</w>":3296,"설명":3297,"재밌는데</w>":3298,"메세":3299,"하다":3300,"함과</w>":3301,"잘생":3302,"아까워</w>":3303,"만점":3304,"인줄</w>":3305,"잊혀":3306,"전달":3307,"한건</w>":3308,"어설프":3309,"화이팅</w>":3310,"나가":3311,"자꾸</w>":3312,"사람들":3313,"대단한</w>":3314,"귀신":3315,"났다</w>":3316,"봐야</w>":3317,"제로</w>":3318,"풀어":3319,"재밌었다</w>":3320,"생각해":3321,"도저히</w>":3322,"15":3323,"대의</w>":3324,"스터</w>":3325,"있네</w>":3326,"즐겁":3327,"편이</w>":3328,"눈물</w>":3329,"영원":3330,"액션도</w>":3331,"킬링타임용":3332,"기만</w>":3333,"사건":3334,"올리":3335,"리의</w>":3336,"미치":3337,"안됨</w>":3338,"이미</w>":3339,"스타일":3340,"12":3341,"빨리</w>":3342,"황당":3343,"시청률":3344,"알게":3345,"있습니다</w>":3346,"혼자</w>":3347,"너무너무</w>":3348,"완벽한</w>":3349,"프로그":3350,"그만":3351,"바람":3352,"드라마가</w>":3353,"모습이</w>":3354,"놀라":3355,"려는</w>":3356,"리메이":3357,"스트</w>":3358,"오는</w>":3359,"졸작":3360,"무조건</w>":3361,"돌려":3362,"원래</w>":3363,"댓글":3364,"공포영화</w>":3365,"그닥</w>":3366,"웃음</w>":3367,"취향":3368,"영화이다</w>":3369,"억지로</w>":3370,"믿고</w>":3371,"사가</w>":3372,"일까</w>":3373,"전부</w>":3374,"특유의</w>":3375,"속에서</w>":3376,"영웅":3377,"우연히</w>":3378,"스토리에</w>":3379,"감독님</w>":3380,"전형적인</w>":3381,"예전에</w>":3382,"진실":3383,"화가</w>":3384,"못보":3385,"별점</w>":3386,"부모":3387,"스포":3388,"유명":3389,"저런</w>":3390,"하지않":3391,"못하고</w>":3392,"못하는</w>":3393,"습니다":3394,"알겠":3395,"편집":3396,"영화지만</w>":3397,"재미없고</w>":3398,"낮은":3399,"복수":3400,"우울":3401,"흘러":3402,"아니면</w>":3403,"10년":3404,"이야기가</w>":3405,"넘어":3406,"누군":3407,"네이버</w>":3408,"말도":3409,"목소리":3410,"이렇게":3411,"아버지":3412,"평론가":3413,"꿀잼</w>":3414,"더러":3415,"환상":3416,"재미있고</w>":3417,"지금도</w>":3418,"그렇고</w>":3419,"낭비</w>":3420,"노력":3421,"주세요</w>":3422,"어렵":3423,"없어":3424,"있나</w>":3425,"전설":3426,"중간</w>":3427,"드라마를</w>":3428,"드라마는</w>":3429,"영화였습니다</w>":3430,"관심":3431,"삼류":3432,"자의</w>":3433,"해지":3434,"영환":3435,"걸까</w>":3436,"돈주고</w>":3437,"라는":3438,"억지</w>":3439,"전편":3440,"한편":3441,"님이</w>":3442,"데도</w>":3443,"들었":3444,"말을</w>":3445,"점수</w>":3446,"해피":3447,"처음으로</w>":3448,"B급</w>":3449,"각본":3450,"같아</w>":3451,"같습니다</w>":3452,"였음</w>":3453,"더럽게</w>":3454,"스런</w>":3455,"엉망":3456,"죽는":3457,"줄거리":3458,"아까운":3459,"그런데</w>":3460,"보시길</w>":3461,"3류</w>":3462,"되었다</w>":3463,"뜬금":3464,"가장":3465,"과는</w>":3466,"으면":3467,"하다고</w>":3468,"보고싶다</w>":3469,"아무것도</w>":3470,"경찰":3471,"봣는데</w>":3472,"이에요</w>":3473,"중에서</w>":3474,"질질":3475,"유치하고</w>":3476,"내고</w>":3477,"시원":3478,"안맞":3479,"하여</w>":3480,"한국영화</w>":3481,"게임":3482,"미화":3483,"적당":3484,"전문":3485,"한다는</w>":3486,"걸작":3487,"그럴":3488,"바보":3489,"사실</w>":3490,"여자가</w>":3491,"더라":3492,"봐도":3493,"아주":3494,"하지도</w>":3495,"할까</w>":3496,"보니까</w>":3497,"안나오":3498,"원작</w>":3499,"이연":3500,"있다는</w>":3501,"저예":3502,"희망":3503,"모습을</w>":3504,"기도":3505,"노출":3506,"돈이</w>":3507,"드러":3508,"미친</w>":3509,"새끼":3510,"완성":3511,"홍콩":3512,"나머":3513,"는가</w>":3514,"마치</w>":3515,"소녀":3516,"죽음":3517,"천재":3518,"학교</w>":3519,"연기자":3520,"명작이다</w>":3521,"들고</w>":3522,"하면서도</w>":3523,"허술":3524,"보고나서</w>":3525,"으로는</w>":3526,"연출이</w>":3527,"짜증나":3528,"거지":3529,"나를</w>":3530,"높은":3531,"만이</w>":3532,"주의</w>":3533,"아니지만</w>":3534,"th":3535,"랄까</w>":3536,"보인다</w>":3537,"스크":3538,"어떤":3539,"이미":3540,"사람을</w>":3541,"좋았습니다</w>":3542,"보지마세요</w>":3543,"있지</w>":3544,"하세요</w>":3545,"기대하고</w>":3546,"cg":3547,"리티":3548,"절대":3549,"피해":3550,"만들었다</w>":3551,"좋았음</w>":3552,"흥미진진":3553,"OS":3554,"잘봤습니다</w>":3555,"촬영":3556,"극장판":3557,"는듯</w>":3558,"조연":3559,"행동":3560,"최악이다</w>":3561,"로맨스":3562,"2점":3563,"년에</w>":3564,"싸이":3565,"않음</w>":3566,"우는</w>":3567,"움이</w>":3568,"있네요</w>":3569,"하지":3570,"아이들이</w>":3571,"마음을</w>":3572,"지말고</w>":3573,"강추":3574,"그려":3575,"남기":3576,"느낄</w>":3577,"드가</w>":3578,"뭔지</w>":3579,"소재</w>":3580,"어느</w>":3581,"이해</w>":3582,"간의</w>":3583,"삶을</w>":3584,"적이</w>":3585,"내용을</w>":3586,"너무나도</w>":3587,"OOO</w>":3588,"더군요</w>":3589,"있다면</w>":3590,"전작":3591,"한다면</w>":3592,"좋았고</w>":3593,"감사합니다</w>":3594,"in":3595,"거리</w>":3596,"동화":3597,"두고</w>":3598,"봤으면</w>":3599,"안에</w>":3600,"이젠</w>":3601,"철학":3602,"이런걸</w>":3603,"어릴때</w>":3604,"괜히</w>":3605,"엔딩</w>":3606,"안되고</w>":3607,"무엇보다</w>":3608,"걸로</w>":3609,"메시":3610,"성장":3611,"하다가</w>":3612,"만들지</w>":3613,"불륜":3614,"봅니다</w>":3615,"선생":3616,"왠만":3617,"시간을</w>":3618,"지금까지</w>":3619,"소재는</w>":3620,"심심":3621,"아는</w>":3622,"아도</w>":3623,"와닿":3624,"의도":3625,"아닌데</w>":3626,"캐스팅</w>":3627,"싫다</w>":3628,"왜이리</w>":3629,"다행":3630,"후반부":3631,"화려한</w>":3632,"고생":3633,"데이":3634,"드립니다</w>":3635,"때는</w>":3636,"연기와</w>":3637,"재밌었어요</w>":3638,"비슷한</w>":3639,"눈이</w>":3640,"동생":3641,"버렸다</w>":3642,"일어":3643,"스토리를</w>":3644,"그래픽":3645,"보기엔</w>":3646,"B급":3647,"됩니다</w>":3648,"리다</w>":3649,"미래":3650,"성공":3651,"없지만</w>":3652,"유머":3653,"이런게</w>":3654,"지금봐도</w>":3655,"드럽":3656,"모자":3657,"문화":3658,"분들":3659,"빼고</w>":3660,"떨어지":3661,"로맨스</w>":3662,"같아서</w>":3663,"그라":3664,"꿀잼":3665,"나와</w>":3666,"남는다</w>":3667,"애들이</w>":3668,"이리</w>":3669,"자유":3670,"좋았는데</w>":3671,"필요없다</w>":3672,"나왔으면</w>":3673,"거기":3674,"끄럽":3675,"리도</w>":3676,"웃긴":3677,"유치한</w>":3678,"소재를</w>":3679,"네이버":3680,"감을</w>":3681,"뮤지":3682,"빠지":3683,"어쩔":3684,"의외":3685,"죽이":3686,"영화냐</w>":3687,"전체적으로</w>":3688,"나쁜":3689,"는것":3690,"생각없이</w>":3691,"하는거</w>":3692,"모르는</w>":3693,"별로다</w>":3694,"남아":3695,"버렸":3696,"뿐이다</w>":3697,"스티":3698,"식이</w>":3699,"이후</w>":3700,"스토리와</w>":3701,"자신의</w>":3702,"진부한</w>":3703,"능력":3704,"아놔</w>":3705,"앞으로</w>":3706,"올라":3707,"했던":3708,"재미없어</w>":3709,"확실히</w>":3710,"10</w>":3711,"2점</w>":3712,"니깐</w>":3713,"부분</w>":3714,"소년":3715,"이영화가</w>":3716,"자체</w>":3717,"느끼게</w>":3718,"ood</w>":3719,"높은</w>":3720,"분에</w>":3721,"하긴</w>":3722,"있었던</w>":3723,"끝나고</w>":3724,"끌어":3725,"나름":3726,"발연기</w>":3727,"봤다가</w>":3728,"시길</w>":3729,"여성":3730,"역할":3731,"그런가</w>":3732,"다소</w>":3733,"데요</w>":3734,"러브":3735,"로는</w>":3736,"순간</w>":3737,"였는데</w>":3738,"왠지</w>":3739,"대단하다</w>":3740,"어렸을때</w>":3741,"ㄷㄷ":3742,"느낄":3743,"볼때마다</w>":3744,"씨가</w>":3745,"자는</w>":3746,"사람의</w>":3747,"하는거":3748,"슬프다</w>":3749,"구성</w>":3750,"유일":3751,"무시":3752,"봤었는데</w>":3753,"식으로</w>":3754,"싶은":3755,"외국":3756,"하루":3757,"액션은</w>":3758,"처음이다</w>":3759,"다운</w>":3760,"안보":3761,"이지":3762,"있을</w>":3763,"정치":3764,"짜증</w>":3765,"반전이</w>":3766,"ㅇㅇ</w>":3767,"나타":3768,"분들은</w>":3769,"서도</w>":3770,"와서</w>":3771,"있으면</w>":3772,"작가</w>":3773,"감동적이고</w>":3774,"ㅅㅂ</w>":3775,"서야</w>":3776,"시켜":3777,"인은</w>":3778,"청춘":3779,"이런거</w>":3780,"세상에</w>":3781,"SF":3782,"고민":3783,"고도</w>":3784,"어야":3785,"여주인공</w>":3786,"연예":3787,"왜이렇게</w>":3788,"할듯</w>":3789,"액션이</w>":3790,"음악이</w>":3791,"아닐까</w>":3792,"대작":3793,"볼수</w>":3794,"이란":3795,"ost":3796,"er":3797,"뻔한":3798,"웠던</w>":3799,"이래":3800,"한테":3801,"혼자":3802,"생각나":3803,"생각한다</w>":3804,"매력적인</w>":3805,"인상깊":3806,"나만</w>":3807,"노래</w>":3808,"먼저</w>":3809,"볼수록</w>":3810,"인정":3811,"힘든</w>":3812,"영화보고</w>":3813,"아쉬운</w>":3814,"추천합니다</w>":3815,"여전히</w>":3816,"8점":3817,"심히</w>":3818,"프리":3819,"이런영화</w>":3820,"눈을</w>":3821,"시고</w>":3822,"실패":3823,"을수":3824,"중의</w>":3825,"통해</w>":3826,"0점":3827,"기의</w>":3828,"분이</w>":3829,"않았다</w>":3830,"특별":3831,"하셨":3832,"허접한</w>":3833,"40":3834,"내생":3835,"모습</w>":3836,"미소":3837,"병맛":3838,"어린</w>":3839,"옛날</w>":3840,"움을</w>":3841,"이를</w>":3842,"시간에</w>":3843,"역시나</w>":3844,"tv":3845,"가득":3846,"같고</w>":3847,"슬픈</w>":3848,"이며</w>":3849,"흥미롭":3850,"이유가</w>":3851,"예고편":3852,"7점":3853,"과연</w>":3854,"설정</w>":3855,"알고":3856,"없을":3857,"없나</w>":3858,"음악도</w>":3859,"동물":3860,"만화</w>":3861,"슬픈":3862,"하다니</w>":3863,"3류":3864,"굳이</w>":3865,"그들의</w>":3866,"마라</w>":3867,"상을</w>":3868,"연애":3869,"웃겨":3870,"자를</w>":3871,"사랑이</w>":3872,"보여준</w>":3873,"아름답고</w>":3874,"소름돋":3875,"그저":3876,"그리</w>":3877,"되게</w>":3878,"버리고</w>":3879,"비가</w>":3880,"슈퍼":3881,"이걸":3882,"인을</w>":3883,"정을</w>":3884,"지루</w>":3885,"스는</w>":3886,"심리":3887,"언제</w>":3888,"영화를":3889,"겠네</w>":3890,"그래</w>":3891,"사기":3892,"재미를</w>":3893,"이유는</w>":3894,"산만":3895,"참고</w>":3896,"포장":3897,"내요</w>":3898,"알수":3899,"종교":3900,"효과":3901,"생각합니다</w>":3902,"만들고</w>":3903,"필요없는</w>":3904,"깔끔":3905,"만나":3906,"절한</w>":3907,"져서</w>":3908,"느껴지는</w>":3909,"다큐멘":3910,"가가</w>":3911,"맞는</w>":3912,"설레":3913,"없는데</w>":3914,"였습니다</w>":3915,"지난</w>":3916,"치게</w>":3917,"재미있음</w>":3918,"좋은영화</w>":3919,"유쾌한</w>":3920,"류의</w>":3921,"성은</w>":3922,"오락":3923,"평점이":3924,"스럽게</w>":3925,"티비에서</w>":3926,"더라도</w>":3927,"들어</w>":3928,"맞추":3929,"부족한</w>":3930,"귀엽고</w>":3931,"케이블":3932,"로그":3933,"만으로</w>":3934,"받고</w>":3935,"빨리":3936,"아무</w>":3937,"전기":3938,"아니었":3939,"내려":3940,"던지</w>":3941,"재밌었는데</w>":3942,"좋아서</w>":3943,"기대를</w>":3944,"에서의</w>":3945,"만들어진</w>":3946,"개연성</w>":3947,"그럭":3948,"기고</w>":3949,"별점":3950,"심을</w>":3951,"하던</w>":3952,"후속":3953,"재밌습니다</w>":3954,"그럭저":3955,"90년대</w>":3956,"멋진":3957,"오그라":3958,"웃겼":3959,"장이</w>":3960,"태어":3961,"소름끼":3962,"80년대</w>":3963,"놀랍":3964,"더만</w>":3965,"들만</w>":3966,"르고</w>":3967,"에휴</w>":3968,"연기력이</w>":3969,"가를</w>":3970,"가진</w>":3971,"무지</w>":3972,"삼류</w>":3973,"쓸데":3974,"0년대":3975,"독특한</w>":3976,"거짓":3977,"국민":3978,"그럼</w>":3979,"김기":3980,"난해":3981,"미스":3982,"아련":3983,"정서":3984,"지겹":3985,"짱짱":3986,"한다고</w>":3987,"영화가":3988,"나오는":3989,"매력이</w>":3990,"순수한</w>":3991,"진심으로</w>":3992,"여주인공":3993,"했는지</w>":3994,"나라</w>":3995,"되네요</w>":3996,"드리":3997,"보다도</w>":3998,"아름답다</w>":3999,"판타지":4000,"0점</w>":4001,"결론":4002,"과거":4003,"기엔</w>":4004,"까지는</w>":4005,"놓은</w>":4006,"다지</w>":4007,"불쾌":4008,"사극":4009,"쓰래":4010,"아침":4011,"인터":4012,"한다":4013,"제목이</w>":4014,"이정도면</w>":4015,"그립":4016,"느와":4017,"보면":4018,"소장":4019,"소한</w>":4020,"아오</w>":4021,"역대</w>":4022,"자막":4023,"트가</w>":4024,"현실을</w>":4025,"9점</w>":4026,"듯이</w>":4027,"마저</w>":4028,"발이</w>":4029,"비주":4030,"알바</w>":4031,"어라</w>":4032,"이루":4033,"찍었":4034,"호러":4035,"이라서</w>":4036,"정말로</w>":4037,"떨어지는</w>":4038,"분위기</w>":4039,"평범한</w>":4040,"괴물":4041,"덕분에</w>":4042,"되서</w>":4043,"디즈":4044,"상처":4045,"섹시":4046,"의심":4047,"이상한</w>":4048,"아닌듯</w>":4049,"수준이</w>":4050,"이후로</w>":4051,"가까":4052,"로버":4053,"몰라도</w>":4054,"심각":4055,"에이":4056,"으론</w>":4057,"전투":4058,"제목</w>":4059,"페이":4060,"감동과</w>":4061,"사랑에</w>":4062,"장면에서</w>":4063,"우리가</w>":4064,"인생의</w>":4065,"다큐멘터":4066,"3점</w>":4067,"게다가</w>":4068,"구하고</w>":4069,"끄러":4070,"낮아서</w>":4071,"년도</w>":4072,"보러":4073,"싸구":4074,"없지</w>":4075,"을수</w>":4076,"질질</w>":4077,"영화에요</w>":4078,"어이없는</w>":4079,"어색한</w>":4080,"그때":4081,"들었다</w>":4082,"밑에</w>":4083,"존나":4084,"쩐다</w>":4085,"하이":4086,"히어":4087,"만든다</w>":4088,"에게는</w>":4089,"거냐</w>":4090,"리뷰":4091,"망작":4092,"못해</w>":4093,"어지는</w>":4094,"없을</w>":4095,"예전":4096,"오버":4097,"자고</w>":4098,"줘서</w>":4099,"현실</w>":4100,"재미있게":4101,"는거야</w>":4102,"슬프고</w>":4103,"판타지</w>":4104,"or":4105,"굿굿</w>":4106,"분노":4107,"졸라</w>":4108,"흐름":4109,"지루해서</w>":4110,"지금은</w>":4111,"연출도</w>":4112,"시대를</w>":4113,"귀여운</w>":4114,"감탄":4115,"니가</w>":4116,"수는</w>":4117,"스스":4118,"아아":4119,"주기도</w>":4120,"타임</w>":4121,"지루해</w>":4122,"소재로</w>":4123,"더빙</w>":4124,"마음</w>":4125,"무협":4126,"서로</w>":4127,"시선":4128,"시시":4129,"아줌":4130,"에만</w>":4131,"오랫":4132,"줘야":4133,"한것":4134,"지않고</w>":4135,"공감이</w>":4136,"제작진":4137,"an":4138,"고등":4139,"까진</w>":4140,"년도":4141,"놀랐":4142,"대는</w>":4143,"로도</w>":4144,"만점</w>":4145,"살짝</w>":4146,"오빠":4147,"외계":4148,"우드</w>":4149,"저질":4150,"편은</w>":4151,"사랑하는</w>":4152,"정도의</w>":4153,"소재가</w>":4154,"무서운":4155,"재밌었음</w>":4156,"갑니다</w>":4157,"광고":4158,"년전</w>":4159,"많다</w>":4160,"명의</w>":4161,"아나</w>":4162,"역겨":4163,"주고":4164,"그것":4165,"사를</w>":4166,"생활":4167,"성애":4168,"알게</w>":4169,"이의</w>":4170,"이도</w>":4171,"조잡":4172,"폭력":4173,"처음엔</w>":4174,"현실적인</w>":4175,"중간중간</w>":4176,"그럭저럭</w>":4177,"가족</w>":4178,"낮은</w>":4179,"먹는</w>":4180,"보내":4181,"블랙":4182,"빼고는</w>":4183,"저렇게</w>":4184,"좋습니다</w>":4185,"재미없네</w>":4186,"인생을</w>":4187,"그지":4188,"아내":4189,"여기</w>":4190,"인간</w>":4191,"최근":4192,"희생":4193,"좋아하는데</w>":4194,"몰입도":4195,"이쁘고</w>":4196,"드의</w>":4197,"른다</w>":4198,"바뀌":4199,"어가</w>":4200,"일뿐</w>":4201,"통쾌":4202,"배우들도</w>":4203,"있었는데</w>":4204,"볼만함</w>":4205,"웃기고</w>":4206,"신선한</w>":4207,"기분이</w>":4208,"9점":4209,"각본</w>":4210,"강렬":4211,"무비</w>":4212,"비추</w>":4213,"와는</w>":4214,"풋풋":4215,"지루하지</w>":4216,"작품이</w>":4217,"자체는</w>":4218,"비디오</w>":4219,"멋지다</w>":4220,"보며</w>":4221,"봐요</w>":4222,"애들은</w>":4223,"에피":4224,"형편":4225,"가끔</w>":4226,"그다지</w>":4227,"망작</w>":4228,"매력</w>":4229,"새벽":4230,"않게</w>":4231,"없어요</w>":4232,"용서":4233,"웃김</w>":4234,"필요</w>":4235,"홍보":4236,"모르게</w>":4237,"아이가</w>":4238,"결말도</w>":4239,"보고싶은</w>":4240,"가볍게</w>":4241,"99":4242,"남겨":4243,"느낀":4244,"만들</w>":4245,"본방":4246,"봤던":4247,"씁쓸":4248,"한지</w>":4249,"사랑과</w>":4250,"다는걸</w>":4251,"추억의</w>":4252,"리메이크":4253,"같았":4254,"넘치는</w>":4255,"뻔하고</w>":4256,"소름</w>":4257,"죽여":4258,"참고":4259,"몰입이</w>":4260,"반전도</w>":4261,"는거지</w>":4262,"어떻게":4263,"봐야할</w>":4264,"프랑스":4265,"대한민국</w>":4266,"기본":4267,"깨닫":4268,"남을</w>":4269,"려면</w>":4270,"많았":4271,"받은</w>":4272,"발연기":4273,"본다면</w>":4274,"쓰고</w>":4275,"암튼</w>":4276,"여주</w>":4277,"작은</w>":4278,"전쟁</w>":4279,"채널":4280,"챙겨":4281,"초반</w>":4282,"했으나</w>":4283,"재미있네요</w>":4284,"감동적":4285,"작가가</w>":4286,"더라구요</w>":4287,"높다</w>":4288,"들에</w>":4289,"시트":4290,"씬은</w>":4291,"여행":4292,"역대":4293,"이건뭐</w>":4294,"코메디</w>":4295,"er</w>":4296,"까지도</w>":4297,"리에</w>":4298,"무언":4299,"섬세":4300,"쉽게</w>":4301,"신경":4302,"이니</w>":4303,"점수를</w>":4304,"하다는</w>":4305,"하고자</w>":4306,"짜증나는</w>":4307,"그렇다고</w>":4308,"결말은</w>":4309,"마이너":4310,"견자":4311,"결국":4312,"군대":4313,"나에게</w>":4314,"돋보":4315,"맘에":4316,"반성":4317,"성인":4318,"씨의</w>":4319,"않아</w>":4320,"오래</w>":4321,"지구":4322,"가져":4323,"개봉</w>":4324,"기로</w>":4325,"는건지</w>":4326,"미국</w>":4327,"삶의</w>":4328,"시대</w>":4329,"신이</w>":4330,"이뻐":4331,"지요</w>":4332,"크게</w>":4333,"평생</w>":4334,"표정":4335,"재미잇":4336,"지루함":4337,"사랑의</w>":4338,"작품을</w>":4339,"초반에</w>":4340,"코메디":4341,"♥♥</w>":4342,"검색":4343,"끝까지":4344,"니콜":4345,"많고</w>":4346,"발전":4347,"별루":4348,"본게</w>":4349,"산으로</w>":4350,"입장":4351,"집에서</w>":4352,"한계":4353,"영화는":4354,"사랑은</w>":4355,"대사가</w>":4356,"겟다</w>":4357,"고양":4358,"받아서</w>":4359,"성에</w>":4360,"우와</w>":4361,"존경":4362,"로맨틱":4363,"언제나</w>":4364,"공부":4365,"남녀":4366,"싶네요</w>":4367,"없다":4368,"온다</w>":4369,"장애":4370,"저런":4371,"하자</w>":4372,"모든게</w>":4373,"기만":4374,"느라</w>":4375,"대체":4376,"분명":4377,"아들":4378,"엄마</w>":4379,"연결":4380,"전부":4381,"포기":4382,"했네</w>":4383,"느낌을</w>":4384,"등장인물":4385,"OST":4386,"공감</w>":4387,"나중에</w>":4388,"는구나</w>":4389,"대표":4390,"대충</w>":4391,"빠진</w>":4392,"세요":4393,"없습니다</w>":4394,"었습니다</w>":4395,"이하</w>":4396,"일상":4397,"잘만든</w>":4398,"제대로":4399,"지마</w>":4400,"ㅋㅋㅋㅋㅋㅋ</w>":4401,"프랑스</w>":4402,"싸이코":4403,"떠나서</w>":4404,"불구하고</w>":4405,"였던</w>":4406,"웠음</w>":4407,"이용":4408,"있던</w>":4409,"죄다</w>":4410,"눈물을</w>":4411,"는데도</w>":4412,"OOO기</w>":4413,"는걸</w>":4414,"단지</w>":4415,"둘다</w>":4416,"떠오":4417,"목소리</w>":4418,"올려":4419,"원이</w>":4420,"특수":4421,"함께":4422,"힐링":4423,"생각하고</w>":4424,"하나가</w>":4425,"쓰레기다</w>":4426,"남자의</w>":4427,"무섭다</w>":4428,"뛰어난</w>":4429,"에피소":4430,"13":4431,"3점":4432,"5점":4433,"ㅇㅇ":4434,"감명":4435,"같이":4436,"보았다</w>":4437,"생겼":4438,"세가</w>":4439,"않지만</w>":4440,"였어요</w>":4441,"인해</w>":4442,"평이</w>":4443,"포인":4444,"했다":4445,"영화인듯</w>":4446,"재미있었다</w>":4447,"기술":4448,"려고":4449,"못했다</w>":4450,"보자</w>":4451,"북한":4452,"비극":4453,"었어요</w>":4454,"열심히</w>":4455,"이자</w>":4456,"잘하고</w>":4457,"전혀":4458,"제일":4459,"좀더</w>":4460,"클레":4461,"타이":4462,"화가":4463,"공포영화":4464,"어이가</w>":4465,"무엇을</w>":4466,"ar":4467,"거슬":4468,"다양":4469,"대가</w>":4470,"마세요</w>":4471,"멜로</w>":4472,"시각":4473,"식의</w>":4474,"전반":4475,"표절":4476,"프레":4477,"하려고</w>":4478,"단순한</w>":4479,"게이":4480,"기독":4481,"나올</w>":4482,"냐고</w>":4483,"러닝":4484,"본영화</w>":4485,"싸우":4486,"의문":4487,"테러":4488,"판에</w>":4489,"보지마라</w>":4490,"하려는</w>":4491,"거면</w>":4492,"내내":4493,"누구나</w>":4494,"는것도</w>":4495,"더불":4496,"반개도</w>":4497,"복잡":4498,"않을</w>":4499,"어처":4500,"조용":4501,"테이":4502,"재밌어</w>":4503,"좋아하는":4504,"하기만</w>":4505,"정신병":4506,"딱히</w>":4507,"상업":4508,"슬퍼":4509,"실제</w>":4510,"않나</w>":4511,"없게</w>":4512,"적은</w>":4513,"조폭":4514,"투자":4515,"생각이":4516,"잔잔하고</w>":4517,"이제야</w>":4518,"과의</w>":4519,"그걸</w>":4520,"그때</w>":4521,"란다</w>":4522,"매니":4523,"보길</w>":4524,"아마":4525,"여배우</w>":4526,"음을</w>":4527,"인도":4528,"좋게</w>":4529,"틀어":4530,"했다는</w>":4531,"남자가</w>":4532,"영화였어요</w>":4533,"끼리</w>":4534,"다이":4535,"더이상</w>":4536,"묘사":4537,"심이</w>":4538,"어휴</w>":4539,"지켜":4540,"현재":4541,"영화네</w>":4542,"최고입니다</w>":4543,"영상미</w>":4544,"잼있게</w>":4545,"프로그램":4546,"드럽게</w>":4547,"어처구":4548,"good</w>":4549,"거같다</w>":4550,"겁나</w>":4551,"교육":4552,"더라면</w>":4553,"때가</w>":4554,"랍니다</w>":4555,"민망":4556,"봤더니</w>":4557,"속의</w>":4558,"슬펐":4559,"슬픔":4560,"줄이야</w>":4561,"지의</w>":4562,"찌질":4563,"찝찝":4564,"나오면</w>":4565,"ㅠㅠㅠㅠ</w>":4566,"극장판</w>":4567,"오랜만":4568,"모르겠고</w>":4569,"의미를</w>":4570,"킬링타임용</w>":4571,"엉성한</w>":4572,"11":4573,"고마":4574,"글쎄</w>":4575,"되면</w>":4576,"바꿔":4577,"번째</w>":4578,"보려고</w>":4579,"식을</w>":4580,"인거</w>":4581,"일을</w>":4582,"주고싶":4583,"친다</w>":4584,"히는</w>":4585,"하나의</w>":4586,"음악과</w>":4587,"스트레":4588,"0점은</w>":4589,"가면</w>":4590,"기발":4591,"못함</w>":4592,"일부":4593,"작품은</w>":4594,"볼만하다</w>":4595,"수준의</w>":4596,"것들</w>":4597,"계의</w>":4598,"깊게</w>":4599,"나네요</w>":4600,"남주":4601,"못하":4602,"분은</w>":4603,"새롭":4604,"악당":4605,"재난":4606,"주연</w>":4607,"했네요</w>":4608,"현대":4609,"좋아해서</w>":4610,"작품이다</w>":4611,"연출력":4612,"개연성":4613,"상상력":4614,"내인생</w>":4615,"눈에</w>":4616,"려다</w>":4617,"뭉클":4618,"받는</w>":4619,"세월":4620,"수의</w>":4621,"시작</w>":4622,"이정":4623,"제이":4624,"집니다</w>":4625,"크레":4626,"배우를</w>":4627,"이런영화가</w>":4628,"하기도</w>":4629,"분위기":4630,"긴장감도</w>":4631,"보고나면</w>":4632,"8점</w>":4633,"고통":4634,"과장":4635,"묘한</w>":4636,"밋밋":4637,"부족</w>":4638,"살다</w>":4639,"아닙":4640,"인가요</w>":4641,"있는지</w>":4642,"조선":4643,"하늘":4644,"해리":4645,"재밌다":4646,"재밌어":4647,"있었지만</w>":4648,"전개도</w>":4649,"신선하고</w>":4650,"웃음이</w>":4651,"해피엔딩":4652,"겁니다</w>":4653,"고요</w>":4654,"대중":4655,"벌써</w>":4656,"없다는</w>":4657,"은영화</w>":4658,"지겨":4659,"포르":4660,"흔한</w>":4661,"기대했는데</w>":4662,"정도는</w>":4663,"으로서</w>":4664,"평론가</w>":4665,"몇번을</w>":4666,"안타깝다</w>":4667,"기억</w>":4668,"때까지</w>":4669,"루즈":4670,"실제":4671,"악역":4672,"어머니":4673,"은듯</w>":4674,"좋지만</w>":4675,"퀄리티":4676,"내용인지</w>":4677,"좋았던</w>":4678,"시대에</w>":4679,"해야지</w>":4680,"힘들다</w>":4681,"어릴적</w>":4682,"옛날에</w>":4683,"더불어</w>":4684,"다큐</w>":4685,"무비":4686,"얼굴</w>":4687,"클라":4688,"사람들의</w>":4689,"재밋다</w>":4690,"표현한</w>":4691,"왜이래</w>":4692,"탄탄한</w>":4693,"놈들</w>":4694,"도아니고</w>":4695,"떠나":4696,"레전":4697,"말하고</w>":4698,"바이":4699,"반복":4700,"봐주":4701,"싶었":4702,"아픈</w>":4703,"안가":4704,"카리스":4705,"생각으로</w>":4706,"무서운</w>":4707,"재미있었어요</w>":4708,"의외로</w>":4709,"50":4710,"경험":4711,"만을</w>":4712,"밖에":4713,"시에</w>":4714,"안보고</w>":4715,"왜케</w>":4716,"입니다":4717,"한가</w>":4718,"함에</w>":4719,"사랑스러운</w>":4720,"아깝지</w>":4721,"왠만하면</w>":4722,"개판":4723,"거임</w>":4724,"관한</w>":4725,"눈빛":4726,"로만</w>":4727,"몸매":4728,"무리":4729,"박진":4730,"생생":4731,"성룡</w>":4732,"애가</w>":4733,"울었다</w>":4734,"하는건</w>":4735,"아이들</w>":4736,"이상의</w>":4737,"재밋게":4738,"따뜻해지는</w>":4739,"4점</w>":4740,"es":4741,"못한다</w>":4742,"바꾸":4743,"베이":4744,"분명</w>":4745,"주성":4746,"했을</w>":4747,"허접</w>":4748,"재미가":4749,"장면도</w>":4750,"지않는</w>":4751,"짜증난다</w>":4752,"만들어도</w>":4753,"아쉽네요</w>":4754,"감정을</w>":4755,"어린이":4756,"고전":4757,"망쳐":4758,"살다":4759,"생애</w>":4760,"와우</w>":4761,"이민":4762,"커플":4763,"패러":4764,"하라</w>":4765,"생각나는</w>":4766,"이거보고</w>":4767,"이쁘다</w>":4768,"대한민국":4769,"6점":4770,"끝날":4771,"당한</w>":4772,"머니</w>":4773,"정우":4774,"줍니다</w>":4775,"책임":4776,"치밀":4777,"지루했다</w>":4778,"느껴지":4779,"로맨틱</w>":4780,"연기력도</w>":4781,"겨울":4782,"따위":4783,"세계</w>":4784,"앞으로도</w>":4785,"어리":4786,"우주":4787,"자살":4788,"해석":4789,"너무너무":4790,"시간가는":4791,"재미없어요</w>":4792,"그렇지</w>":4793,"긴한데</w>":4794,"때우":4795,"라이</w>":4796,"보네</w>":4797,"볼만</w>":4798,"인내":4799,"져요</w>":4800,"편견":4801,"포스터</w>":4802,"재밌네</w>":4803,"주인공은</w>":4804,"다시한번</w>":4805,"연출력</w>":4806,"모르겠지만</w>":4807,"크리스마":4808,"것에</w>":4809,"깨달":4810,"달달":4811,"따라</w>":4812,"미쳤":4813,"빼면</w>":4814,"아류":4815,"영혼":4816,"이정도</w>":4817,"짱짱</w>":4818,"책을</w>":4819,"좋았으나</w>":4820,"아깝고</w>":4821,"이해가":4822,"그렇다</w>":4823,"나쁜</w>":4824,"듯하다</w>":4825,"리게</w>":4826,"박수를</w>":4827,"부르":4828,"아픔":4829,"안쓰":4830,"외모":4831,"응원":4832,"이소":4833,"제시":4834,"했나</w>":4835,"ㅋㅋㅋㅋㅋㅋㅋ</w>":4836,"좋았지만</w>":4837,"우리는</w>":4838,"필요한</w>":4839,"시키는</w>":4840,"잊혀지지</w>":4841,"ov":4842,"가벼":4843,"것만</w>":4844,"결과":4845,"뒤로</w>":4846,"맨날</w>":4847,"면에서</w>":4848,"물을</w>":4849,"보긴</w>":4850,"분들이</w>":4851,"빵터":4852,"일반":4853,"저질</w>":4854,"정의":4855,"배우도</w>":4856,"10자</w>":4857,"나오지</w>":4858,"인간이</w>":4859,"이유를</w>":4860,"자신이</w>":4861,"해주세요</w>":4862,"죽는줄</w>":4863,"그것도</w>":4864,"나는":4865,"노답</w>":4866,"대화":4867,"머리</w>":4868,"병맛</w>":4869,"울고</w>":4870,"웃겨</w>":4871,"정상":4872,"주변":4873,"나오네</w>":4874,"최악의":4875,"원작의</w>":4876,"봐야지</w>":4877,"캐릭터가</w>":4878,"완전히</w>":4879,"없는영화</w>":4880,"없었던</w>":4881,"여기서</w>":4882,"카메라":4883,"로의</w>":4884,"믿고":4885,"비판":4886,"씬이</w>":4887,"어제</w>":4888,"있다":4889,"잘어울":4890,"정체":4891,"했다고</w>":4892,"현재</w>":4893,"영화와</w>":4894,"보여줬":4895,"하기엔</w>":4896,"느껴진다</w>":4897,"출연진":4898,"학교에서</w>":4899,"가치가</w>":4900,"만큼은</w>":4901,"즐겁게</w>":4902,"김수":4903,"도안":4904,"도를</w>":4905,"볼거리":4906,"상관":4907,"새로":4908,"셔서</w>":4909,"잡고</w>":4910,"잼잇":4911,"조작":4912,"했을까</w>":4913,"호가</w>":4914,"재미와</w>":4915,"연기잘":4916,"시간낭비</w>":4917,"우리의</w>":4918,"유쾌하고</w>":4919,"지도않고</w>":4920,"bb":4921,"감도</w>":4922,"감히</w>":4923,"개뿔</w>":4924,"김민":4925,"멋있다</w>":4926,"불러":4927,"아오":4928,"아냐</w>":4929,"점에서</w>":4930,"죽이고</w>":4931,"짜임":4932,"하길래</w>":4933,"아니야</w>":4934,"다시는</w>":4935,"지않은</w>":4936,"무섭지도</w>":4937,"보았습니다</w>":4938,"21":4939,"같아":4940,"거리는</w>":4941,"기가":4942,"리는":4943,"명이</w>":4944,"방법":4945,"불가</w>":4946,"사고":4947,"사의</w>":4948,"살려":4949,"예쁜</w>":4950,"움직":4951,"있으":4952,"참으로</w>":4953,"형님</w>":4954,"생각함</w>":4955,"시간낭비":4956,"하나로</w>":4957,"흥미로":4958,"좋겠어요</w>":4959,"장르가</w>":4960,"스케일":4961,"저예산</w>":4962,"본방사":4963,"ㄷㄷㄷ</w>":4964,"달라":4965,"듣고</w>":4966,"빌려":4967,"아역":4968,"아마</w>":4969,"역겹":4970,"프로</w>":4971,"했었":4972,"힘든":4973,"배우는</w>":4974,"10분":4975,"정도가</w>":4976,"이상은</w>":4977,"이었음</w>":4978,"모르겠음</w>":4979,"시청률</w>":4980,"3편":4981,"4점":4982,"나이</w>":4983,"때도</w>":4984,"물이</w>":4985,"브루":4986,"어찌":4987,"오로":4988,"우려":4989,"자나</w>":4990,"했어</w>":4991,"지루하게</w>":4992,"어려운</w>":4993,"싸구려</w>":4994,"거운</w>":4995,"되는데</w>":4996,"디테":4997,"버림</w>":4998,"줄거리</w>":4999,"쵝오</w>":5000,"친구</w>":5001,"펑펑</w>":5002,"평가</w>":5003,"하지마라</w>":5004,"해진다</w>":5005,"평점보고</w>":5006,"아이돌":5007,"유치하다</w>":5008,"가슴에</w>":5009,"자신을</w>":5010,"아버지</w>":5011,"소설을</w>":5012,"다음</w>":5013,"때부터</w>":5014,"방금</w>":5015,"사진":5016,"심하게</w>":5017,"얘기</w>":5018,"이였다</w>":5019,"있구나</w>":5020,"좋을":5021,"쳐서</w>":5022,"하지마":5023,"후에</w>":5024,"스타일</w>":5025,"느끼는</w>":5026,"답답하고</w>":5027,"말이필요":5028,"199":5029,"DV":5030,"나도":5031,"류승":5032,"리아":5033,"미가</w>":5034,"블록":5035,"설득":5036,"세련":5037,"시걸":5038,"심지":5039,"악마":5040,"잘만들었":5041,"찍은</w>":5042,"특이":5043,"영화나</w>":5044,"감동의</w>":5045,"장면을</w>":5046,"현실적이":5047,"3D":5048,"ㅉㅉㅉ</w>":5049,"거라</w>":5050,"꿈을</w>":5051,"단연</w>":5052,"말았":5053,"보지말":5054,"비하면</w>":5055,"손발이</w>":5056,"숨겨":5057,"시는</w>":5058,"쓰는</w>":5059,"어찌</w>":5060,"왔는데</w>":5061,"자들</w>":5062,"점수가</w>":5063,"영화보면서</w>":5064,"만들면</w>":5065,"액션영화</w>":5066,"으로써</w>":5067,"하고싶":5068,"몰입해서</w>":5069,"0000":5070,"인상적이":5071,"히어로":5072,"갈등":5073,"높아</w>":5074,"대를</w>":5075,"려요</w>":5076,"무지":5077,"보다니</w>":5078,"빼곤</w>":5079,"섹스":5080,"스파이":5081,"약한</w>":5082,"에대한</w>":5083,"유치</w>":5084,"이입":5085,"인줄":5086,"함은</w>":5087,"만들다니</w>":5088,"이런영화를</w>":5089,"짜증나</w>":5090,"알바들</w>":5091,"개연성이</w>":5092,"지나치게</w>":5093,"예쁘고</w>":5094,"the</w>":5095,"스크린":5096,"뮤지컬":5097,"5점</w>":5098,"7점</w>":5099,"끝이</w>":5100,"다룬</w>":5101,"도전":5102,"등등</w>":5103,"로서</w>":5104,"먹은</w>":5105,"버린":5106,"봤네</w>":5107,"아동":5108,"안나":5109,"없이":5110,"최강":5111,"생각나서</w>":5112,"아이디":5113,"떨어진다</w>":5114,"부분도</w>":5115,"이제서야</w>":5116,"ing</w>":5117,"이래서</w>":5118,"공짜":5119,"기준":5120,"배경</w>":5121,"신비":5122,"씨는</w>":5123,"어두":5124,"위대한</w>":5125,"집어":5126,"코믹</w>":5127,"하지말":5128,"한편</w>":5129,"100</w>":5130,"웃기지도</w>":5131,"ㅠㅠㅠㅠㅠㅠㅠㅠ":5132,"모두가</w>":5133,"프로그램</w>":5134,"기회":5135,"깊이</w>":5136,"남편":5137,"모를</w>":5138,"발견":5139,"사회</w>":5140,"살면서</w>":5141,"시사회":5142,"실력":5143,"심오":5144,"안돼":5145,"예뻐":5146,"자식":5147,"청소년":5148,"최근</w>":5149,"하구</w>":5150,"해보":5151,"사람도</w>":5152,"스토리의</w>":5153,"이해할</w>":5154,"한국영화는</w>":5155,"연출과</w>":5156,"느낌의</w>":5157,"10점을</w>":5158,"시리즈는</w>":5159,"행복한</w>":5160,"하시는</w>":5161,"돌아가":5162,"영원히</w>":5163,"아줌마":5164,"갔다</w>":5165,"끝났":5166,"끝나는</w>":5167,"낮지</w>":5168,"로봇":5169,"바랍니다</w>":5170,"별루</w>":5171,"신파":5172,"왔다</w>":5173,"이럴":5174,"인가":5175,"젊은":5176,"제임":5177,"보여준다</w>":5178,"이야기는</w>":5179,"가슴을</w>":5180,"분위기가</w>":5181,"멍청한</w>":5182,"그린</w>":5183,"늘어":5184,"러시":5185,"받아</w>":5186,"베드":5187,"상이</w>":5188,"싶은데</w>":5189,"아기":5190,"양심":5191,"영어":5192,"와의</w>":5193,"임을</w>":5194,"젠장</w>":5195,"주말":5196,"죽을":5197,"지났":5198,"트의</w>":5199,"풍경":5200,"하던데</w>":5201,"한건지</w>":5202,"했을":5203,"재밌다고</w>":5204,"이런영화":5205,"아이들":5206,"한국영화":5207,"이었습니다</w>":5208,"부족하다</w>":5209,"긴장감이</w>":5210,"뛰어넘":5211,"가능한</w>":5212,"봤는데도</w>":5213,"더러운</w>":5214,"영환데</w>":5215,"로그인":5216,"★★":5217,"감은</w>":5218,"내면":5219,"리즈":5220,"명을</w>":5221,"방송</w>":5222,"비행":5223,"손가":5224,"신은</w>":5225,"았던</w>":5226,"오바":5227,"이랑":5228,"이유</w>":5229,"이죠</w>":5230,"중국</w>":5231,"하하</w>":5232,"할만한</w>":5233,"재미도없고</w>":5234,"아쉬움</w>":5235,"친구가</w>":5236,"시리즈중</w>":5237,"노래도</w>":5238,"아저씨</w>":5239,"같네</w>":5240,"개념":5241,"드네요</w>":5242,"들게</w>":5243,"리스</w>":5244,"부부":5245,"사운":5246,"스페":5247,"우연":5248,"유지":5249,"음ㅋㅋ</w>":5250,"이래</w>":5251,"잼나":5252,"조절":5253,"진정</w>":5254,"할지</w>":5255,"했었는데</w>":5256,"기대안하고</w>":5257,"카메라</w>":5258,"아까운영화</w>":5259,"남은</w>":5260,"낮다</w>":5261,"는것</w>":5262,"데리고</w>":5263,"버리는</w>":5264,"안볼":5265,"어우":5266,"의리":5267,"이번</w>":5268,"학생</w>":5269,"했지</w>":5270,"화끈":5271,"영화라는</w>":5272,"영화인지</w>":5273,"영화인가</w>":5274,"기대안":5275,"시대의</w>":5276,"문제가</w>":5277,"개연성도</w>":5278,"진부하고</w>":5279,"영화인줄</w>":5280,"30분":5281,"18":5282,"국가":5283,"년전에</w>":5284,"만은</w>":5285,"방영":5286,"사투":5287,"세상</w>":5288,"않네요</w>":5289,"일으":5290,"최민":5291,"충실":5292,"하면":5293,"할리":5294,"허세":5295,"괜찮은데</w>":5296,"여자의</w>":5297,"인생에</w>":5298,"부분은</w>":5299,"흥미로운</w>":5300,"개인적":5301,"세상을</w>":5302,"그녀의</w>":5303,"만점에</w>":5304,"기독교":5305,"2시간":5306,"ea":5307,"런닝":5308,"말할</w>":5309,"발로</w>":5310,"삶에</w>":5311,"설마</w>":5312,"수고":5313,"싸움":5314,"어쩔</w>":5315,"인도</w>":5316,"인들</w>":5317,"잊지</w>":5318,"정신</w>":5319,"케릭":5320,"토록</w>":5321,"필름":5322,"해선</w>":5323,"생각하면</w>":5324,"배우들은</w>":5325,"지루한":5326,"감동적이다</w>":5327,"감독님":5328,"쓰레기같은</w>":5329,"반전은</w>":5330,"관객을</w>":5331,"어렸을</w>":5332,"알겠는데</w>":5333,"전기세가</w>":5334,"아닙니다</w>":5335,"CG</w>":5336,"가르":5337,"감흥":5338,"겠네요</w>":5339,"긴다</w>":5340,"됐다</w>":5341,"되나</w>":5342,"두번</w>":5343,"아가":5344,"아나":5345,"아이</w>":5346,"야동":5347,"야말로</w>":5348,"여러</w>":5349,"역사</w>":5350,"우드":5351,"음이</w>":5352,"인디":5353,"작위":5354,"하여":5355,"해결":5356,"화를</w>":5357,"하나같이</w>":5358,"스러운":5359,"다는거</w>":5360,"잔인한</w>":5361,"이연걸":5362,"그건</w>":5363,"느니</w>":5364,"다루":5365,"신의</w>":5366,"영이</w>":5367,"있다고</w>":5368,"타고</w>":5369,"할말이</w>":5370,"형제":5371,"훌륭하다</w>":5372,"유명한</w>":5373,"감각":5374,"거부":5375,"근데":5376,"낚였":5377,"누가":5378,"돈을</w>":5379,"많아서</w>":5380,"봤을까</w>":5381,"속편":5382,"스피":5383,"야구":5384,"엇다</w>":5385,"원의</w>":5386,"이것이</w>":5387,"한개도</w>":5388,"영화중":5389,"재미있습니다</w>":5390,"매력적이":5391,"결말을</w>":5392,"한번도</w>":5393,"영화라니</w>":5394,"기다려":5395,"is</w>":5396,"on":5397,"결정":5398,"구성이</w>":5399,"남네요</w>":5400,"말고는</w>":5401,"시도":5402,"실제로</w>":5403,"아들</w>":5404,"안된":5405,"안본":5406,"않을까</w>":5407,"였지만</w>":5408,"위해서</w>":5409,"은근":5410,"있냐</w>":5411,"젊은</w>":5412,"중독":5413,"집에</w>":5414,"치곤</w>":5415,"평을</w>":5416,"생각했는데</w>":5417,"감독을</w>":5418,"재밋게</w>":5419,"명작입니다</w>":5420,"별로임</w>":5421,"만들었는지</w>":5422,"즐거운</w>":5423,"한심한</w>":5424,"것인가</w>":5425,"긴하지만</w>":5426,"다를":5427,"도망":5428,"둘이</w>":5429,"똑같은</w>":5430,"많은데</w>":5431,"미모":5432,"봤다":5433,"부탁":5434,"아야":5435,"영국":5436,"이쁜":5437,"읽어":5438,"임에도</w>":5439,"장난</w>":5440,"잼있다</w>":5441,"좋다":5442,"주면</w>":5443,"주기</w>":5444,"찍어":5445,"충격</w>":5446,"함의</w>":5447,"헤어":5448,"재미도":5449,"내용이":5450,"1점준":5451,"보기에는</w>":5452,"여운을</w>":5453,"잼있어요</w>":5454,"강력":5455,"것도":5456,"관이</w>":5457,"당연":5458,"대해서</w>":5459,"드라</w>":5460,"려다가</w>":5461,"말하는</w>":5462,"멘타":5463,"사무":5464,"살고</w>":5465,"성격":5466,"아시":5467,"아예</w>":5468,"오빠</w>":5469,"왔습니다</w>":5470,"절로</w>":5471,"주지</w>":5472,"죽었":5473,"했다면</w>":5474,"혹은</w>":5475,"화장":5476,"최고였다</w>":5477,"하나하나</w>":5478,"재밋어요</w>":5479,"아쉬웠":5480,"감정이</w>":5481,"없었음</w>":5482,"8점대":5483,"tv</w>":5484,"거북":5485,"고맙":5486,"그만큼</w>":5487,"넘게</w>":5488,"드를</w>":5489,"못할</w>":5490,"무료":5491,"받을</w>":5492,"봤을":5493,"비추":5494,"색다른</w>":5495,"여름":5496,"유아":5497,"있다니</w>":5498,"힘이</w>":5499,"이런건</w>":5500,"몰입도가</w>":5501,"정말이지</w>":5502,"원작이</w>":5503,"떨어지고</w>":5504,"아쉽지만</w>":5505,"시청자":5506,"작가님</w>":5507,"2편은</w>":5508,"마무리</w>":5509,"어설프고</w>":5510,"5분":5511,"7점대":5512,"90":5513,"ㅠㅜ</w>":5514,"개는</w>":5515,"겠음</w>":5516,"과학":5517,"누나</w>":5518,"는지":5519,"미스터":5520,"봤다면</w>":5521,"없으면</w>":5522,"오글</w>":5523,"용으로</w>":5524,"이름</w>":5525,"인기":5526,"잔혹":5527,"장국":5528,"줄은</w>":5529,"탈출":5530,"재미없게</w>":5531,"마지막까지</w>":5532,"있었음</w>":5533,"소재도</w>":5534,"나왔다</w>":5535,"연기력은</w>":5536,"답답한</w>":5537,"비디오로</w>":5538,"느꼈다</w>":5539,"러닝타임":5540,"블록버":5541,"겠습니다</w>":5542,"끔찍":5543,"납니다</w>":5544,"다섯":5545,"배역":5546,"시킨</w>":5547,"인과</w>":5548,"자동":5549,"잘봤어요</w>":5550,"적절":5551,"지르":5552,"크로":5553,"터미":5554,"해진</w>":5555,"영화들</w>":5556,"최고임</w>":5557,"ㅋㅋㅋㅋㅋㅋㅋㅋ</w>":5558,"으로만</w>":5559,"이상하게</w>":5560,"짜증나서</w>":5561,"명작을</w>":5562,"따뜻하고</w>":5563,"ㅎㅎㅎㅎ</w>":5564,"소름이</w>":5565,"잘생겼":5566,"심지어</w>":5567,"2는</w>":5568,"건가요</w>":5569,"결코</w>":5570,"남주</w>":5571,"때의</w>":5572,"레알</w>":5573,"변태":5574,"보던</w>":5575,"생에</w>":5576,"시나</w>":5577,"안간다</w>":5578,"위에</w>":5579,"유발":5580,"으니까</w>":5581,"조니":5582,"질리지</w>":5583,"짜집":5584,"한숨":5585,"한것</w>":5586,"생각하는</w>":5587,"느낌이":5588,"000":5589,"노래가</w>":5590,"살다살다</w>":5591,"갖고</w>":5592,"겨우</w>":5593,"리아</w>":5594,"배트":5595,"빠졌":5596,"살리":5597,"앞에</w>":5598,"어여</w>":5599,"어디</w>":5600,"올해</w>":5601,"이든</w>":5602,"인지":5603,"임팩":5604,"좋앗":5605,"지나도</w>":5606,"트를</w>":5607,"표현</w>":5608,"학년":5609,"액션을</w>":5610,"진짜로</w>":5611,"일본영화</w>":5612,"아름다운":5613,"전개와</w>":5614,"아쉬운":5615,"의미가</w>":5616,"역사를</w>":5617,"당시에</w>":5618,"나쁘지</w>":5619,"초등학생":5620,"클레멘타":5621,"게하는</w>":5622,"낮네</w>":5623,"두려":5624,"려나</w>":5625,"명품":5626,"뭔가":5627,"석이</w>":5628,"수입":5629,"스릴</w>":5630,"심형":5631,"애기":5632,"잊을</w>":5633,"정확":5634,"하신":5635,"해준다</w>":5636,"아깝다":5637,"보여주고</w>":5638,"매력을</w>":5639,"무섭고</w>":5640,"주제를</w>":5641,"당신은</w>":5642,"최고의영화</w>":5643,"시청률이</w>":5644,"대놓고</w>":5645,"동안":5646,"둘째":5647,"뒤에</w>":5648,"로를</w>":5649,"성과</w>":5650,"스에</w>":5651,"않은":5652,"않을":5653,"언니":5654,"언젠":5655,"예능":5656,"욕망":5657,"정작</w>":5658,"영화야</w>":5659,"재밌어서</w>":5660,"연기도":5661,"감동은</w>":5662,"아깝네</w>":5663,"이상하고</w>":5664,"친구랑</w>":5665,"1편은</w>":5666,"추억이</w>":5667,"중요한</w>":5668,"잊혀지":5669,"터미네이":5670,"1편</w>":5671,"ou":5672,"강한</w>":5673,"그대로":5674,"낚였다</w>":5675,"년전":5676,"드래":5677,"라가</w>":5678,"머리가</w>":5679,"목숨":5680,"무척</w>":5681,"봐서":5682,"선동":5683,"손에</w>":5684,"않는":5685,"우뢰":5686,"이병":5687,"일깨":5688,"있어야</w>":5689,"제니":5690,"최초":5691,"피아":5692,"재밌는":5693,"지루해":5694,"재미없었다</w>":5695,"아까웠다</w>":5696,"연출은</w>":5697,"아무런</w>":5698,"반전을</w>":5699,"만든영화</w>":5700,"있는영화</w>":5701,"기다리":5702,"아프다</w>":5703,"22":5704,"건만</w>":5705,"극치</w>":5706,"냈다</w>":5707,"대통":5708,"대작</w>":5709,"드림</w>":5710,"만듬</w>":5711,"무술":5712,"문제</w>":5713,"바탕":5714,"부실":5715,"성의</w>":5716,"수많은</w>":5717,"없는게</w>":5718,"완성도</w>":5719,"제외":5720,"영화들":5721,"드라마의</w>":5722,"그래픽</w>":5723,"처음에는</w>":5724,"여자는</w>":5725,"보기에</w>":5726,"영상이</w>":5727,"아직까지</w>":5728,"영화였음</w>":5729,"엉성하고</w>":5730,"부터가</w>":5731,"2014":5732,"안타까운</w>":5733,"여주가</w>":5734,"이따위":5735,"비주얼":5736,"다양한</w>":5737,"BS":5738,"li":5739,"게요</w>":5740,"겠어요</w>":5741,"교과":5742,"굿굿":5743,"들어서</w>":5744,"막판에</w>":5745,"모양":5746,"못생":5747,"뭘까</w>":5748,"봤었":5749,"상태":5750,"웃긴</w>":5751,"유덕":5752,"이리":5753,"이보다</w>":5754,"인거":5755,"인데":5756,"인물</w>":5757,"인들이</w>":5758,"파워":5759,"파치":5760,"확인":5761,"영화보는</w>":5762,"내용과</w>":5763,"재미없어서</w>":5764,"처음에</w>":5765,"극장가서</w>":5766,"어색하고</w>":5767,"엄마가</w>":5768,"OOO기":5769,"그리고":5770,"리메이크</w>":5771,"스스로</w>":5772,"st":5773,"감정</w>":5774,"것들이</w>":5775,"나보다</w>":5776,"높아서</w>":5777,"늦게</w>":5778,"니당</w>":5779,"님들</w>":5780,"라도":5781,"많아":5782,"말은</w>":5783,"먹었":5784,"묻어":5785,"뱀파이":5786,"부끄러":5787,"없다고</w>":5788,"여운</w>":5789,"오리":5790,"지는":5791,"처럼":5792,"키스":5793,"영화만</w>":5794,"정도면</w>":5795,"짜증남</w>":5796,"영상과</w>":5797,"제작비":5798,"좋겠네요</w>":5799,"식상한</w>":5800,"훈훈한</w>":5801,"2시간</w>":5802,"dv":5803,"강호":5804,"거기에</w>":5805,"과정":5806,"기지</w>":5807,"나면</w>":5808,"나에겐</w>":5809,"당연히</w>":5810,"동성애":5811,"드림":5812,"로드":5813,"뭐니</w>":5814,"발견</w>":5815,"베스트":5816,"본건데</w>":5817,"불가":5818,"소소한</w>":5819,"시즌</w>":5820,"으리":5821,"해줬":5822,"핵노잼</w>":5823,"재밌던데</w>":5824,"내용도":5825,"하나하나가</w>":5826,"스러움</w>":5827,"학교때</w>":5828,"한편의</w>":5829,"2편</w>":5830,"갔는데</w>":5831,"관객</w>":5832,"김혜":5833,"꼬마":5834,"나중":5835,"때려":5836,"만하다</w>":5837,"맛이</w>":5838,"망치":5839,"명화":5840,"못한":5841,"본지</w>":5842,"수있는</w>":5843,"신고</w>":5844,"압권</w>":5845,"약간의</w>":5846,"없냐</w>":5847,"없나요</w>":5848,"열정":5849,"익숙":5850,"인데도</w>":5851,"좋을</w>":5852,"죽는</w>":5853,"직접</w>":5854,"집착":5855,"짝퉁":5856,"찍은":5857,"추격":5858,"클래":5859,"재밌어요":5860,"이해하기</w>":5861,"1점도":5862,"재밋음</w>":5863,"1편이</w>":5864,"아저씨":5865,"이따구":5866,"말도안되는</w>":5867,"느낄수</w>":5868,"새벽에</w>":5869,"역대급</w>":5870,"게임</w>":5871,"기법":5872,"다크":5873,"던거</w>":5874,"던영화</w>":5875,"동시에</w>":5876,"말할":5877,"무한":5878,"바닥":5879,"번은</w>":5880,"벗어":5881,"보아":5882,"보자":5883,"부끄럽":5884,"서부":5885,"속으로</w>":5886,"압권":5887,"없고":5888,"예쁜":5889,"잤다</w>":5890,"전율":5891,"제발":5892,"주고싶다</w>":5893,"차별":5894,"하길</w>":5895,"하지만":5896,"한참</w>":5897,"사람이라면</w>":5898,"내용에</w>":5899,"이런영화는</w>":5900,"마음으로</w>":5901,"유치함</w>":5902,"별로고</w>":5903,"같은영화</w>":5904,"모든걸</w>":5905,"많은걸</w>":5906,"소중한</w>":5907,"유일하게</w>":5908,"그립다</w>":5909,"해리포":5910,"가야":5911,"낚시":5912,"몇몇</w>":5913,"번을</w>":5914,"심장":5915,"악한</w>":5916,"안감</w>":5917,"위대":5918,"이었는데</w>":5919,"티브":5920,"해도":5921,"호기":5922,"원작에</w>":5923,"웃기다</w>":5924,"무엇인지</w>":5925,"영화라고":5926,"포스터가</w>":5927,"얼굴이</w>":5928,"단순히</w>":5929,"전문가":5930,"저예산":5931,"놀랍다</w>":5932,"깨닫게</w>":5933,"0점이</w>":5934,"bs":5935,"그야말로</w>":5936,"길게</w>":5937,"끌고</w>":5938,"높게</w>":5939,"댓글</w>":5940,"들의":5941,"무너":5942,"봐줄":5943,"부작":5944,"싶어":5945,"어든</w>":5946,"영향":5947,"웃고</w>":5948,"위험":5949,"자랑":5950,"적어도</w>":5951,"줘도</w>":5952,"질리":5953,"쳤다</w>":5954,"트는</w>":5955,"하아</w>":5956,"한명":5957,"했더니</w>":5958,"영화이":5959,"재밌을":5960,"감독과</w>":5961,"하는건지</w>":5962,"다시보니</w>":5963,"는거다</w>":5964,"가족이</w>":5965,"전쟁의</w>":5966,"어울리는</w>":5967,"불쌍하다</w>":5968,"교훈을</w>":5969,"ost</w>":5970,"전설의</w>":5971,"느와르":5972,"최근에</w>":5973,"시간가는줄</w>":5974,"70년대</w>":5975,"감안":5976,"나무":5977,"냄새":5978,"마르":5979,"메리":5980,"못하다</w>":5981,"세포":5982,"어쩜</w>":5983,"여태":5984,"외로":5985,"일은</w>":5986,"자리":5987,"점도</w>":5988,"참나</w>":5989,"편안":5990,"힘내":5991,"영화인</w>":5992,"최고로</w>":5993,"지루할</w>":5994,"아니지</w>":5995,"너무도</w>":5996,"좋아요":5997,"괜찮은":5998,"보았는데</w>":5999,"에게도</w>":6000,"몰랐다</w>":6001,"나머지</w>":6002,"케이블에서</w>":6003,"태어나서</w>":6004,"포르노":6005,"DVD":6006,"그가</w>":6007,"긴박":6008,"네티":6009,"년만에</w>":6010,"단편":6011,"돋보이는</w>":6012,"든지</w>":6013,"마냥</w>":6014,"면이</w>":6015,"배급":6016,"본거":6017,"볼게</w>":6018,"봤지</w>":6019,"속편</w>":6020,"아파":6021,"안돼</w>":6022,"양아":6023,"어릴</w>":6024,"언니</w>":6025,"연극":6026,"오브":6027,"오오":6028,"이성":6029,"이수":6030,"정의</w>":6031,"키는</w>":6032,"한지":6033,"할머니":6034,"후회</w>":6035,"는거냐</w>":6036,"왜이러":6037,"예쁘다</w>":6038,"요소가</w>":6039,"쓸데없이</w>":6040,"14":6041,"것같아요</w>":6042,"겨서</w>":6043,"내인생":6044,"는대</w>":6045,"달려":6046,"담아":6047,"버려":6048,"부럽":6049,"비밀":6050,"스와</w>":6051,"약간":6052,"어진</w>":6053,"이가":6054,"주윤":6055,"즐기":6056,"진한</w>":6057,"찾아</w>":6058,"치고는</w>":6059,"특히":6060,"파괴":6061,"해주고</w>":6062,"화면</w>":6063,"시간아깝다</w>":6064,"괜찮음</w>":6065,"소재와</w>":6066,"스럽지</w>":6067,"그렇게":6068,"가족의</w>":6069,"다는건</w>":6070,"무서웠":6071,"영화라서</w>":6072,"엔딩이</w>":6073,"이름이</w>":6074,"년도에</w>":6075,"이뻐서</w>":6076,"매니아":6077,"어우러":6078,"개가</w>":6079,"그린":6080,"꽤나</w>":6081,"덕에</w>":6082,"만족</w>":6083,"범인":6084,"법한</w>":6085,"세기</w>":6086,"애매":6087,"없음":6088,"였고</w>":6089,"이여</w>":6090,"임창":6091,"조합":6092,"치가</w>":6093,"폐지":6094,"한가":6095,"할말":6096,"효과</w>":6097,"후의</w>":6098,"아니라고</w>":6099,"아깝네요</w>":6100,"하나는</w>":6101,"액션과</w>":6102,"이해를</w>":6103,"떨어짐</w>":6104,"억지스러운</w>":6105,"모르겠네요</w>":6106,"감정이입":6107,"아름답게</w>":6108,"궁금하다</w>":6109,"집중해서</w>":6110,"사실을</w>":6111,"다르게</w>":6112,"시나리오가</w>":6113,"결론은</w>":6114,"숨겨진</w>":6115,"겠죠</w>":6116,"공간":6117,"국내":6118,"기에는</w>":6119,"꼭보세요</w>":6120,"네유</w>":6121,"달콤":6122,"돈으로</w>":6123,"따분":6124,"따로</w>":6125,"막히":6126,"망한</w>":6127,"뭐하나</w>":6128,"밀려":6129,"반드":6130,"볼때</w>":6131,"브라":6132,"여주인공이</w>":6133,"인것</w>":6134,"자세":6135,"중2":6136,"크리":6137,"해요":6138,"홍상":6139,"재미로</w>":6140,"괜찮고</w>":6141,"때문에":6142,"지금의</w>":6143,"짜증나고</w>":6144,"잼있음</w>":6145,"수작이다</w>":6146,"헐리우드</w>":6147,"마무리":6148,"킬링타임용으로</w>":6149,"유일한</w>":6150,"일부러</w>":6151,"극장</w>":6152,"까봐</w>":6153,"다는데</w>":6154,"레인":6155,"로가</w>":6156,"만도</w>":6157,"먼가</w>":6158,"뭐임</w>":6159,"뭐하자":6160,"본듯</w>":6161,"싶어요</w>":6162,"에요":6163,"오프":6164,"올드":6165,"인형":6166,"자본":6167,"재능":6168,"잼나게</w>":6169,"조아":6170,"합니다":6171,"만들어서</w>":6172,"이런거":6173,"한국의</w>":6174,"있었고</w>":6175,"장난치":6176,"시즌1":6177,"가득한</w>":6178,"쓰래기</w>":6179,"en":6180,"ou</w>":6181,"같지만</w>":6182,"같았다</w>":6183,"개성":6184,"갠적으로</w>":6185,"김지":6186,"김태":6187,"깜짝":6188,"난잡":6189,"낸다</w>":6190,"더욱":6191,"두근":6192,"뭐라</w>":6193,"박중":6194,"버릴":6195,"빨갱":6196,"아놀":6197,"않아서</w>":6198,"애국":6199,"어의</w>":6200,"어용</w>":6201,"우고</w>":6202,"웬만":6203,"인들의</w>":6204,"자와</w>":6205,"잡아":6206,"주가</w>":6207,"채널</w>":6208,"초에</w>":6209,"편집</w>":6210,"하진</w>":6211,"생각난다</w>":6212,"나오는데</w>":6213,"다르다</w>":6214,"전체적인</w>":6215,"♥♥♥</w>":6216,"하하하</w>":6217,"그저그런</w>":6218,"sf":6219,"그거":6220,"기전에</w>":6221,"끝난":6222,"끝에</w>":6223,"나다</w>":6224,"나레이":6225,"노답":6226,"드디":6227,"리티</w>":6228,"미드</w>":6229,"밤에</w>":6230,"보구</w>":6231,"보네요</w>":6232,"블루":6233,"소설</w>":6234,"손색":6235,"스타</w>":6236,"아들이</w>":6237,"우가</w>":6238,"이도저":6239,"잔뜩</w>":6240,"짜리":6241,"하군</w>":6242,"해지고</w>":6243,"감독도</w>":6244,"하는것":6245,"기대없이</w>":6246,"괜찮았다</w>":6247,"아쉬움이</w>":6248,"제목을</w>":6249,"출연한</w>":6250,"1편보다</w>":6251,"다니는</w>":6252,"오랫만에</w>":6253,"김정":6254,"두고":6255,"들이나</w>":6256,"들이랑</w>":6257,"듭니다</w>":6258,"멋지고</w>":6259,"밑에":6260,"바다":6261,"받을":6262,"보셈</w>":6263,"봤을</w>":6264,"부를</w>":6265,"불허":6266,"선물":6267,"시킨":6268,"암걸":6269,"열연":6270,"왜곡":6271,"을수가</w>":6272,"잘봤":6273,"잘하":6274,"장동":6275,"짐캐":6276,"천국":6277,"첨엔</w>":6278,"치의</w>":6279,"치를</w>":6280,"커플</w>":6281,"컴퓨":6282,"판단":6283,"편인데</w>":6284,"훨씬":6285,"좋았을":6286,"한국영화의</w>":6287,"괜찮다</w>":6288,"ㅠㅠㅠ":6289,"만드네</w>":6290,"느낌은</w>":6291,"일본은</w>":6292,"수준을</w>":6293,"잔잔하게</w>":6294,"한번쯤</w>":6295,"나이가</w>":6296,"이름을</w>":6297,"참신한</w>":6298,"나름대로</w>":6299,"느와르</w>":6300,"곳에</w>":6301,"글고</w>":6302,"꿈꾸":6303,"나루":6304,"님은</w>":6305,"대본":6306,"라의</w>":6307,"멋있":6308,"부담":6309,"분의</w>":6310,"삶이</w>":6311,"심으로</w>":6312,"아는":6313,"안에서</w>":6314,"야한":6315,"엑스":6316,"웃으면서</w>":6317,"의미</w>":6318,"이동":6319,"인듯":6320,"죽어":6321,"즐겨":6322,"코난":6323,"환경":6324,"생각도</w>":6325,"하는영화</w>":6326,"드라마로</w>":6327,"한국에서</w>":6328,"작품성</w>":6329,"주인공들</w>":6330,"아무튼</w>":6331,"몰입감</w>":6332,"웃음만</w>":6333,"괜찮았는데</w>":6334,"디즈니</w>":6335,"반드시</w>":6336,"44":6337,"겠다는</w>":6338,"김희":6339,"도무지</w>":6340,"동양":6341,"때매</w>":6342,"맞지</w>":6343,"보소</w>":6344,"비현실":6345,"서양":6346,"싶지</w>":6347,"압도":6348,"어떨":6349,"이로</w>":6350,"이토록</w>":6351,"일에</w>":6352,"자주</w>":6353,"잘못</w>":6354,"잘만들":6355,"장한</w>":6356,"조카":6357,"티가</w>":6358,"하품":6359,"하니까</w>":6360,"혐오":6361,"ㅋㅋㅋㅋㅋ":6362,"10년이</w>":6363,"사랑이야기</w>":6364,"보는내내":6365,"아이들과</w>":6366,"느낌이다</w>":6367,"인간은</w>":6368,"자체도</w>":6369,"안되는":6370,"알았음</w>":6371,"소리가</w>":6372,"설정이</w>":6373,"오래된</w>":6374,"시절의</w>":6375,"목소리가</w>":6376,"봐도봐도</w>":6377,"특별한</w>":6378,"시트콤</w>":6379,"ㅉㅉ":6380,"가시":6381,"고어":6382,"그럼":6383,"극단":6384,"길을</w>":6385,"다녀":6386,"담은</w>":6387,"못봐주":6388,"박신":6389,"볼려고</w>":6390,"부정":6391,"새끼</w>":6392,"서의</w>":6393,"선을</w>":6394,"소년</w>":6395,"었지만</w>":6396,"유행":6397,"잃어":6398,"정보":6399,"착각":6400,"컨셉":6401,"사람이":6402,"내용의</w>":6403,"좋아할</w>":6404,"모르겟":6405,"재밋엇":6406,"인생은</w>":6407,"보이지</w>":6408,"대사도</w>":6409,"시리즈의</w>":6410,"살아가는</w>":6411,"작가의</w>":6412,"귀여워</w>":6413,"어울리":6414,"포스터에</w>":6415,"실화를</w>":6416,"희망을</w>":6417,"뮤지컬</w>":6418,"강렬한</w>":6419,"견자단":6420,"것같은</w>":6421,"그자체</w>":6422,"김치":6423,"나았":6424,"낮게</w>":6425,"넘치":6426,"놓은":6427,"대부분</w>":6428,"도의</w>":6429,"또다른</w>":6430,"말인가</w>":6431,"모를":6432,"몽환":6433,"성우</w>":6434,"앞에서</w>":6435,"에다가</w>":6436,"오브</w>":6437,"일의</w>":6438,"종영":6439,"좋다고</w>":6440,"축구":6441,"터지":6442,"폭풍":6443,"함도</w>":6444,"형사":6445,"흐르는</w>":6446,"영화지</w>":6447,"이라고":6448,"다시보고싶":6449,"만들었을까</w>":6450,"제목만</w>":6451,"시작해서</w>":6452,"시작부터</w>":6453,"후반부</w>":6454,"시즌2":6455,"이딴걸</w>":6456,"영상미가</w>":6457,"어렵다</w>":6458,"어쩔수":6459,"디즈니":6460,"18</w>":6461,"av":6462,"가면서</w>":6463,"과거</w>":6464,"담배":6465,"당황":6466,"돌리":6467,"모험":6468,"미는</w>":6469,"보이</w>":6470,"보라고</w>":6471,"부러":6472,"부는</w>":6473,"브리":6474,"사용":6475,"었고</w>":6476,"여배우":6477,"예전</w>":6478,"이요</w>":6479,"이없다</w>":6480,"이너무":6481,"잠깐</w>":6482,"잡는</w>":6483,"짧은</w>":6484,"하거나</w>":6485,"한방":6486,"홍콩</w>":6487,"흡입":6488,"영화예요</w>":6489,"감동적</w>":6490,"시간만</w>":6491,"아까워서</w>":6492,"마지막이</w>":6493,"1점은</w>":6494,"있었어요</w>":6495,"지않았":6496,"무서워":6497,"영화라지만</w>":6498,"궁금해서</w>":6499,"불편한</w>":6500,"지겹다</w>":6501,"가벼운</w>":6502,"짜임새":6503,"al":6504,"가끔":6505,"강동":6506,"그동안</w>":6507,"나랑</w>":6508,"내리":6509,"담담":6510,"도데":6511,"래도</w>":6512,"력을</w>":6513,"로코":6514,"마자</w>":6515,"맞춰":6516,"소시":6517,"수면":6518,"않은데</w>":6519,"연속</w>":6520,"의식":6521,"의도가</w>":6522,"이준":6523,"자들의</w>":6524,"적당히</w>":6525,"전성":6526,"전의</w>":6527,"좀비</w>":6528,"질이</w>":6529,"찍고</w>":6530,"탄생":6531,"트라":6532,"호구":6533,"혹시</w>":6534,"그렇지만</w>":6535,"제작비</w>":6536,"시리즈를</w>":6537,"이제는</w>":6538,"배경이</w>":6539,"집중이</w>":6540,"상황을</w>":6541,"볼수있는</w>":6542,"TV에서</w>":6543,"탄탄하고</w>":6544,"손가락":6545,"가면":6546,"가에</w>":6547,"고딩":6548,"관계</w>":6549,"그것이</w>":6550,"극복":6551,"근래</w>":6552,"기위해</w>":6553,"나음</w>":6554,"남는":6555,"놈이</w>":6556,"돈주고":6557,"마니":6558,"만약</w>":6559,"미니":6560,"보려":6561,"선정":6562,"습니까</w>":6563,"알겠다</w>":6564,"엉망</w>":6565,"이들이</w>":6566,"일듯</w>":6567,"잖아요</w>":6568,"졸라":6569,"죽고</w>":6570,"죽은</w>":6571,"직한</w>":6572,"착한</w>":6573,"치면</w>":6574,"표정</w>":6575,"할수가</w>":6576,"희대의</w>":6577,"시간때우":6578,"드라마에</w>":6579,"이상으로</w>":6580,"현실이</w>":6581,"1점을</w>":6582,"하고는</w>":6583,"아무도</w>":6584,"매력에</w>":6585,"는데요</w>":6586,"007":6587,"역사상</w>":6588,"보시면</w>":6589,"더럽게":6590,"어쩌면</w>":6591,"조금은</w>":6592,"ㅋㅋㅋㅋㅋㅋㅋㅋㅋㅋㅋㅋㅋㅋㅋㅋㅋㅋㅋㅋㅋㅋㅋㅋㅋㅋㅋㅋㅋㅋㅋㅋ":6593,"영원한</w>":6594,"놀라운</w>":6595,"뜬금없는</w>":6596,"다행이다</w>":6597,"김기덕":6598,"우려먹":6599,"2번":6600,"가수":6601,"갔다":6602,"것처럼</w>":6603,"끼워":6604,"낮아</w>":6605,"단순</w>":6606,"담백":6607,"들로</w>":6608,"모로</w>":6609,"므로</w>":6610,"버려</w>":6611,"야한다</w>":6612,"에다</w>":6613,"여친":6614,"전지":6615,"정화":6616,"죽은":6617,"하도</w>":6618,"하지말고</w>":6619,"사람들을</w>":6620,"아니잖아</w>":6621,"드라마다</w>":6622,"드라마도</w>":6623,"작품입니다</w>":6624,"전개는</w>":6625,"부분에서</w>":6626,"실망이다</w>":6627,"정신이</w>":6628,"않았지만</w>":6629,"ㅜㅜㅜㅜ":6630,"16":6631,"of</w>":6632,"ti":6633,"♡♡":6634,"가없다</w>":6635,"간에</w>":6636,"감과</w>":6637,"대가":6638,"더니":6639,"더더":6640,"될듯</w>":6641,"매일</w>":6642,"무겁":6643,"무게":6644,"방식":6645,"배신":6646,"보여</w>":6647,"복을</w>":6648,"불륜</w>":6649,"뻔했다</w>":6650,"삭제":6651,"아만":6652,"안봐도</w>":6653,"역을</w>":6654,"웠습니다</w>":6655,"윌리":6656,"이들</w>":6657,"이쁨</w>":6658,"주는데</w>":6659,"짜릿":6660,"좋아하지만</w>":6661,"사랑합니다</w>":6662,"기대했":6663,"볼만했다</w>":6664,"일본의</w>":6665,"보기가</w>":6666,"제작비가</w>":6667,"라이언</w>":6668,"불쌍한</w>":6669,"귀엽다</w>":6670,"다운받아":6671,"이하도</w>":6672,"OST</w>":6673,"쓰래기":6674,"17":6675,"25":6676,"on</w>":6677,"건강":6678,"격투":6679,"관련":6680,"그것을</w>":6681,"나은</w>":6682,"다신</w>":6683,"단체":6684,"답게</w>":6685,"따지":6686,"라스":6687,"리와</w>":6688,"마리":6689,"뭐가":6690,"믿을":6691,"비중":6692,"비호":6693,"빛나는</w>":6694,"살린</w>":6695,"슨이</w>":6696,"실험":6697,"에효</w>":6698,"영의</w>":6699,"와이":6700,"욕을</w>":6701,"저러":6702,"저리</w>":6703,"적절한</w>":6704,"종일":6705,"줬다</w>":6706,"출연</w>":6707,"폭발":6708,"하더라</w>":6709,"할거":6710,"재미있는데</w>":6711,"드라마입니다</w>":6712,"장면만</w>":6713,"현실과</w>":6714,"유치해서</w>":6715,"반전에</w>":6716,"10점주는</w>":6717,"여운이":6718,"세상이</w>":6719,"하시길</w>":6720,"ㅎㅎㅎㅎ":6721,"언제봐도</w>":6722,"2편이</w>":6723,"소중함을</w>":6724,"못보겠다</w>":6725,"아버지의</w>":6726,"허술한</w>":6727,"김기덕</w>":6728,"놀랐다</w>":6729,"견자단</w>":6730,"디테일":6731,"나네</w>":6732,"내게</w>":6733,"똑같":6734,"맞은</w>":6735,"반대":6736,"베리":6737,"봤을때":6738,"신하":6739,"아래</w>":6740,"아아</w>":6741,"안본다</w>":6742,"우의</w>":6743,"울면서</w>":6744,"울리는</w>":6745,"유럽":6746,"이에</w>":6747,"이쁜</w>":6748,"잊지못":6749,"죽음</w>":6750,"지에</w>":6751,"팬이":6752,"해준":6753,"했을때</w>":6754,"황정":6755,"생각하게":6756,"이런류의</w>":6757,"아이들의</w>":6758,"아까워":6759,"작품성":6760,"있었습니다</w>":6761,"애니는</w>":6762,"만들어라</w>":6763,"전개에</w>":6764,"음악은</w>":6765,"봐야하는</w>":6766,"미국의</w>":6767,"아버지가</w>":6768,"내가본</w>":6769,"황당한</w>":6770,"다큐멘터리</w>":6771,"1시간":6772,"as":6773,"tt":6774,"각색":6775,"난리":6776,"대충":6777,"도시":6778,"동화</w>":6779,"들한테</w>":6780,"매우":6781,"못하는":6782,"뭐고</w>":6783,"미녀":6784,"빠르":6785,"상의</w>":6786,"속이</w>":6787,"스키":6788,"아담":6789,"아라</w>":6790,"아빠</w>":6791,"어이</w>":6792,"점수준":6793,"조차":6794,"좋네</w>":6795,"지옥":6796,"하신</w>":6797,"하러</w>":6798,"햇다</w>":6799,"희가</w>":6800,"사랑해요</w>":6801,"보고있":6802,"마지막엔</w>":6803,"만들어주":6804,"메이드</w>":6805,"하기에</w>":6806,"무서움</w>":6807,"빠져서</w>":6808,"재미있었습니다</w>":6809,"내생에</w>":6810,"비주얼</w>":6811,"카리스마":6812,"최악의영화</w>":6813,"드래곤":6814,"대통령":6815,"1위":6816,"co":6817,"me</w>":6818,"zz":6819,"구라":6820,"남았":6821,"든가</w>":6822,"들여":6823,"말자</w>":6824,"무난":6825,"밝혀":6826,"베스트</w>":6827,"보긴":6828,"보이고</w>":6829,"보아도</w>":6830,"보느니</w>":6831,"봤고</w>":6832,"브래":6833,"스텔":6834,"시도</w>":6835,"심한</w>":6836,"애초에</w>":6837,"엘리":6838,"였으면</w>":6839,"원숭":6840,"이들의</w>":6841,"인종":6842,"자들이</w>":6843,"자기가</w>":6844,"죽이는</w>":6845,"쳐도</w>":6846,"코난</w>":6847,"탁월":6848,"트랜":6849,"생각해</w>":6850,"장면들이</w>":6851,"영상도</w>":6852,"인생이</w>":6853,"재밌게봤어요</w>":6854,"마이클":6855,"마이클</w>":6856,"당시엔</w>":6857,"어른이</w>":6858,"헐리웃":6859,"부모님":6860,"시트콤":6861,"제임스</w>":6862,"은근히</w>":6863,"일깨워":6864,"il":6865,"가정":6866,"가며</w>":6867,"과대":6868,"구조":6869,"끝난</w>":6870,"도와":6871,"뒤죽":6872,"드니":6873,"디카":6874,"란티":6875,"뭐라고</w>":6876,"살았":6877,"세여</w>":6878,"소소":6879,"소화":6880,"스필":6881,"실감":6882,"싶을</w>":6883,"안나온다</w>":6884,"예수":6885,"으려고</w>":6886,"의를</w>":6887,"일베":6888,"일주":6889,"장의</w>":6890,"정당":6891,"하네":6892,"허허</w>":6893,"영화제":6894,"배우들을</w>":6895,"감동이":6896,"사랑스러":6897,"기대가</w>":6898,"적이지</w>":6899,"여자를</w>":6900,"필요가</w>":6901,"모습은</w>":6902,"티비로</w>":6903,"여러번</w>":6904,"진지하게</w>":6905,"이연걸</w>":6906,"산만하고</w>":6907,"쓸데없는</w>":6908,"마이너스</w>":6909,"전반적으로</w>":6910,"둘째치고</w>":6911,"뒤죽박":6912,"3번":6913,"SF</w>":6914,"ie</w>":6915,"가는데</w>":6916,"개를</w>":6917,"개막장</w>":6918,"괜히":6919,"구역":6920,"구성도</w>":6921,"깜짝</w>":6922,"나가</w>":6923,"나가는</w>":6924,"달리</w>":6925,"마누":6926,"무식":6927,"물로</w>":6928,"민주":6929,"범죄</w>":6930,"스카":6931,"슬픔</w>":6932,"싶어서</w>":6933,"아가</w>":6934,"우스":6935,"운데</w>":6936,"움과</w>":6937,"이렇":6938,"잘한다</w>":6939,"장르</w>":6940,"줄수":6941,"진이</w>":6942,"찾아서</w>":6943,"첨부터</w>":6944,"추리":6945,"추억</w>":6946,"키드":6947,"할뿐</w>":6948,"영화같다</w>":6949,"최고네요</w>":6950,"재미없다고</w>":6951,"아까울":6952,"있었으면</w>":6953,"20분":6954,"볼만합니다</w>":6955,"명작은</w>":6956,"공감도</w>":6957,"세상에서</w>":6958,"보지마셈</w>":6959,"시키지</w>":6960,"아프고</w>":6961,"만큼이나</w>":6962,"요즘은</w>":6963,"어느정도</w>":6964,"헐리웃</w>":6965,"점수는</w>":6966,"1시간</w>":6967,"가히</w>":6968,"께요</w>":6969,"났음</w>":6970,"년의</w>":6971,"놀래":6972,"담겨":6973,"담긴</w>":6974,"라스</w>":6975,"많아</w>":6976,"말하고자</w>":6977,"맞고</w>":6978,"면을</w>":6979,"못주":6980,"무간":6981,"박보":6982,"박한</w>":6983,"변화":6984,"봤을때</w>":6985,"사건</w>":6986,"선사":6987,"세번":6988,"속았다</w>":6989,"스톤":6990,"슨의</w>":6991,"신을</w>":6992,"야할</w>":6993,"어를</w>":6994,"어는</w>":6995,"예술</w>":6996,"우정":6997,"원은</w>":6998,"유리":6999,"이종":7000,"인건</w>":7001,"읽고</w>":7002,"자로</w>":7003,"전을</w>":7004,"졸업":7005,"준비":7006,"지나</w>":7007,"차이":7008,"체가</w>":7009,"트리":7010,"할때":7011,"회가</w>":7012,"흑백":7013,"영화보다가</w>":7014,"하는가</w>":7015,"하는것</w>":7016,"다시보고</w>":7017,"소재의</w>":7018,"느끼고</w>":7019,"연기력에</w>":7020,"장난하냐</w>":7021,"유쾌하게</w>":7022,"재미있었음</w>":7023,"오글거리":7024,"살인마":7025,"거기다</w>":7026,"연예인</w>":7027,"풋풋한</w>":7028,"크레딧":7029,"믿고보는</w>":7030,"dvd":7031,"드디어</w>":7032,"Th":7033,"가의</w>":7034,"개똥":7035,"개그</w>":7036,"객관":7037,"공중":7038,"그들":7039,"그들이</w>":7040,"극히</w>":7041,"낮네요</w>":7042,"답니다</w>":7043,"드문</w>":7044,"때리":7045,"멋있고</w>":7046,"명불허":7047,"박수":7048,"보통</w>":7049,"본거</w>":7050,"불안":7051,"삶과</w>":7052,"소통":7053,"애를</w>":7054,"어마":7055,"어정":7056,"연속":7057,"외에는</w>":7058,"우정</w>":7059,"이승":7060,"인지도</w>":7061,"잘하시":7062,"적임</w>":7063,"절제":7064,"지부":7065,"지하":7066,"하던":7067,"흘리":7068,"영화중에서</w>":7069,"보고있는데</w>":7070,"보고있어요</w>":7071,"모르지만</w>":7072,"명작이</w>":7073,"만들었나</w>":7074,"어이없다</w>":7075,"캐릭터들이</w>":7076,"알았네</w>":7077,"보게되":7078,"리얼리티":7079,"하자면</w>":7080,"뜬금없이</w>":7081,"강추합니다</w>":7082,"도데체</w>":7083,"in</w>":7084,"가라</w>":7085,"겠다":7086,"그는</w>":7087,"극의</w>":7088,"기는":7089,"기획":7090,"끝도</w>":7091,"끝나서</w>":7092,"놈들은</w>":7093,"다세포":7094,"대신</w>":7095,"드로</w>":7096,"라노":7097,"말그대로</w>":7098,"맞아</w>":7099,"못하겠":7100,"봤는지</w>":7101,"분량":7102,"싶어</w>":7103,"영구":7104,"웃었":7105,"의사":7106,"이끌어":7107,"잘만든":7108,"줄리":7109,"짝이</w>":7110,"초딩</w>":7111,"티비</w>":7112,"파격":7113,"해졌":7114,"흔들":7115,"영화관</w>":7116,"괜찮네요</w>":7117,"현실은</w>":7118,"보기싫":7119,"킬링타임</w>":7120,"주제가</w>":7121,"♥♥♥♥":7122,"괜찮았음</w>":7123,"부터는</w>":7124,"아마추":7125,"스파이더":7126,"bb</w>":7127,"건지":7128,"고뇌":7129,"괜찬":7130,"나왓":7131,"나을듯</w>":7132,"남아</w>":7133,"높지</w>":7134,"님을</w>":7135,"됐는데</w>":7136,"들은":7137,"떠나</w>":7138,"림이</w>":7139,"물어":7140,"미스</w>":7141,"보러</w>":7142,"생명":7143,"시점":7144,"시종일":7145,"아리":7146,"아바":7147,"알파치":7148,"없던</w>":7149,"열받":7150,"외엔</w>":7151,"욕이</w>":7152,"웠어요</w>":7153,"이와</w>":7154,"일품":7155,"저급":7156,"절대로</w>":7157,"죄송":7158,"줘야</w>":7159,"찬란":7160,"키아":7161,"타란티":7162,"편의</w>":7163,"호불":7164,"흉내":7165,"시간이":7166,"시간도</w>":7167,"좋았을텐데</w>":7168,"하나요</w>":7169,"한국인":7170,"괜찮게</w>":7171,"보여준":7172,"공포를</w>":7173,"ㅋㅋㅋㅋㅋㅋㅋㅋㅋ</w>":7174,"이었던</w>":7175,"캐릭터도</w>":7176,"모르겠네</w>":7177,"감동적이네요</w>":7178,"않았던</w>":7179,"문제를</w>":7180,"어린시절</w>":7181,"순수하고</w>":7182,"되었습니다</w>":7183,"좋겠습니다</w>":7184,"초딩때</w>":7185,"러브라":7186,"미소가</w>":7187,"케릭터":7188,"스필버":7189,"30년":7190,"5년":7191,"you</w>":7192,"ㅜㅠ</w>":7193,"간지":7194,"같지</w>":7195,"고있는</w>":7196,"구나":7197,"권상":7198,"대고</w>":7199,"대에</w>":7200,"떠올":7201,"많네</w>":7202,"멋졌":7203,"모니":7204,"반영":7205,"빛을</w>":7206,"사에</w>":7207,"사상</w>":7208,"상은</w>":7209,"아진짜</w>":7210,"안습</w>":7211,"연습":7212,"왠만한</w>":7213,"유머</w>":7214,"인정</w>":7215,"자아":7216,"적으로":7217,"정준":7218,"좋지</w>":7219,"좋을듯</w>":7220,"천재</w>":7221,"커녕</w>":7222,"햇는데</w>":7223,"화는</w>":7224,"힘을</w>":7225,"영화다":7226,"재밌음":7227,"10년</w>":7228,"보고도</w>":7229,"기억에":7230,"여자들</w>":7231,"지않다</w>":7232,"스릴도</w>":7233,"모습에</w>":7234,"흥미를</w>":7235,"스타워":7236,"무서워</w>":7237,"알바가</w>":7238,"시대가</w>":7239,"시리즈가</w>":7240,"답답하다</w>":7241,"인상적인</w>":7242,"엄청나게</w>":7243,"더빙이</w>":7244,"당신이</w>":7245,"스티븐</w>":7246,"로버트</w>":7247,"세월이</w>":7248,"디카프리":7249,"1개":7250,"6점대":7251,"oc":7252,"감성</w>":7253,"게스트":7254,"공룡":7255,"남의</w>":7256,"등록":7257,"마이</w>":7258,"만났":7259,"모욕":7260,"부자연":7261,"빠순":7262,"빠져</w>":7263,"소피":7264,"심하다</w>":7265,"아카":7266,"안보는게</w>":7267,"암울":7268,"애잔":7269,"어떠":7270,"억울":7271,"왕조":7272,"이안":7273,"이군</w>":7274,"이니까</w>":7275,"있으나</w>":7276,"줘야지</w>":7277,"지키":7278,"지게</w>":7279,"직업":7280,"진실</w>":7281,"차승":7282,"천만":7283,"형이</w>":7284,"혹시나</w>":7285,"영화들이</w>":7286,"재미없어":7287,"액션의</w>":7288,"이상한":7289,"에서만</w>":7290,"하고싶다</w>":7291,"아무리":7292,"솔직히":7293,"아닌가요</w>":7294,"있는가</w>":7295,"제목은</w>":7296,"보게되는</w>":7297,"설정은</w>":7298,"여러분</w>":7299,"사이코":7300,"자극적인</w>":7301,"낮은지</w>":7302,"완성도":7303,"무언가</w>":7304,"레전드</w>":7305,"파워레인":7306,"90년대":7307,"es</w>":7308,"mov":7309,"것만으로도</w>":7310,"권력":7311,"기괴":7312,"기와</w>":7313,"깨알":7314,"도대체":7315,"독일":7316,"드립":7317,"디워":7318,"따름</w>":7319,"만남</w>":7320,"맙시다</w>":7321,"모른다</w>":7322,"미화</w>":7323,"바로":7324,"받았다</w>":7325,"방해":7326,"보신":7327,"볼게":7328,"부가</w>":7329,"사극</w>":7330,"새록":7331,"서울":7332,"성의":7333,"세이":7334,"스펙":7335,"싶었다</w>":7336,"쓸쓸":7337,"어차":7338,"올해":7339,"웠고</w>":7340,"이구나</w>":7341,"작이</w>":7342,"적에</w>":7343,"중딩":7344,"즈의</w>":7345,"찾는</w>":7346,"총체":7347,"판이</w>":7348,"팬이</w>":7349,"영화임":7350,"영화란</w>":7351,"생각할</w>":7352,"사람들에게</w>":7353,"시간은</w>":7354,"아이언":7355,"쓰레기를</w>":7356,"현실성":7357,"연출력이</w>":7358,"하고싶은":7359,"지않는다</w>":7360,"짜증이</w>":7361,"인간들</w>":7362,"하기가</w>":7363,"떨어뜨":7364,"가족을</w>":7365,"어이없음</w>":7366,"느껴졌다</w>":7367,"캐릭터는</w>":7368,"어디로</w>":7369,"007</w>":7370,"장난하나</w>":7371,"보았던</w>":7372,"사회의</w>":7373,"포스터만</w>":7374,"충격적인</w>":7375,"충격적이":7376,"캐스팅이</w>":7377,"CG가</w>":7378,"흥미진진</w>":7379,"입장에서</w>":7380,"스트레스</w>":7381,"패러디":7382,"이도저도</w>":7383,"시종일관</w>":7384,"2탄":7385,"7광":7386,"dd":7387,"ㅎㄷㄷ</w>":7388,"갈수":7389,"강아":7390,"귀여운":7391,"그레이":7392,"극을</w>":7393,"길이</w>":7394,"남고</w>":7395,"낫겠다</w>":7396,"낮추":7397,"되요</w>":7398,"등장</w>":7399,"롭고</w>":7400,"마시길</w>":7401,"말씀":7402,"맞게</w>":7403,"맡은</w>":7404,"머야</w>":7405,"먹칠":7406,"멋잇":7407,"몸매</w>":7408,"물의</w>":7409,"뮤직":7410,"반도</w>":7411,"부로</w>":7412,"브로":7413,"선이</w>":7414,"싶습니다</w>":7415,"안나옴</w>":7416,"앞뒤":7417,"었으면</w>":7418,"에드":7419,"왕가":7420,"이어</w>":7421,"이만한</w>":7422,"인에</w>":7423,"재현":7424,"첨이다</w>":7425,"편을</w>":7426,"하면서":7427,"하던가</w>":7428,"한석":7429,"연기가":7430,"10자":7431,"보는거":7432,"그래도":7433,"이야기의</w>":7434,"별로였다</w>":7435,"캐릭터를</w>":7436,"어렸을":7437,"보고나니</w>":7438,"어설프다</w>":7439,"전문가</w>":7440,"나머지는</w>":7441,"거지같은</w>":7442,"한테는</w>":7443,"미스테":7444,"인터넷":7445,"결국은</w>":7446,"5년</w>":7447,"6점</w>":7448,"80":7449,"개판</w>":7450,"개막장":7451,"개노잼</w>":7452,"거의":7453,"고문":7454,"귀신</w>":7455,"넘어</w>":7456,"놨네</w>":7457,"느낀</w>":7458,"답답</w>":7459,"대단</w>":7460,"던져":7461,"들끼리</w>":7462,"로써</w>":7463,"마녀":7464,"마약":7465,"마찬":7466,"마저도</w>":7467,"맞다</w>":7468,"멋짐</w>":7469,"명복을</w>":7470,"몰아":7471,"못해서</w>":7472,"뭐여</w>":7473,"뭐랄까</w>":7474,"봣다</w>":7475,"비쥬":7476,"사이</w>":7477,"소유":7478,"안들":7479,"연관":7480,"원주":7481,"월드":7482,"음에도</w>":7483,"의도는</w>":7484,"인권":7485,"잘만들었다</w>":7486,"전화":7487,"절망":7488,"조합</w>":7489,"좋겟":7490,"증이</w>":7491,"찾기</w>":7492,"칭찬":7493,"코스":7494,"평생":7495,"하겠다</w>":7496,"한순간":7497,"아니었다</w>":7498,"나오네요</w>":7499,"좋았을</w>":7500,"아이를</w>":7501,"이해할수":7502,"눈물이":7503,"만들어낸</w>":7504,"표현이</w>":7505,"공감할</w>":7506,"이었어요</w>":7507,"느껴졌":7508,"나온다":7509,"보고싶은데</w>":7510,"보다가":7511,"귀여워요</w>":7512,"보게된</w>":7513,"이영화를":7514,"여러가지</w>":7515,"이것보단</w>":7516,"당시에는</w>":7517,"한심하다</w>":7518,"웃겨서</w>":7519,"가까운</w>":7520,"싸이코패":7521,"역겹다</w>":7522,"오리지":7523,"1년":7524,"ma":7525,"강간":7526,"겁나":7527,"교훈</w>":7528,"글을</w>":7529,"끝남</w>":7530,"돈내고</w>":7531,"똑같이</w>":7532,"리한</w>":7533,"마시":7534,"머냐</w>":7535,"먼저":7536,"묘하게</w>":7537,"민의</w>":7538,"본질":7539,"분을</w>":7540,"비록</w>":7541,"시가</w>":7542,"실화</w>":7543,"싸우는</w>":7544,"에나</w>":7545,"을정도로</w>":7546,"이시":7547,"이은":7548,"인상</w>":7549,"잖은</w>":7550,"전이</w>":7551,"좋으나</w>":7552,"줄수</w>":7553,"지난":7554,"진리":7555,"쯤은</w>":7556,"창피":7557,"철저":7558,"치유":7559,"할꺼":7560,"재미는":7561,"감동도":7562,"사랑하고</w>":7563,"현실성</w>":7564,"아무생각없이</w>":7565,"이야기도</w>":7566,"만들어졌":7567,"돌아보게</w>":7568,"라이언":7569,"문제는</w>":7570,"대박이다</w>":7571,"웃음을</w>":7572,"모든것이</w>":7573,"어릴때":7574,"조금만</w>":7575,"교훈도</w>":7576,"예고편</w>":7577,"오글거리는</w>":7578,"진지한</w>":7579,"독립영화</w>":7580,"누군지</w>":7581,"기도하고</w>":7582,"형편없는</w>":7583,"못하겠다</w>":7584,"est</w>":7585,"오로지</w>":7586,"공짜로</w>":7587,"it</w>":7588,"겉멋":7589,"놈의</w>":7590,"눈으로</w>":7591,"다ㅋㅋ</w>":7592,"다이하":7593,"도라":7594,"된다는</w>":7595,"드만</w>":7596,"디자":7597,"따듯":7598,"마법":7599,"매이":7600,"매끄럽":7601,"멋있는</w>":7602,"멋져요</w>":7603,"물에</w>":7604,"민폐":7605,"보지마</w>":7606,"봤나</w>":7607,"사와</w>":7608,"생기":7609,"성형":7610,"소개":7611,"아의</w>":7612,"약하다</w>":7613,"어딘":7614,"어수":7615,"없었는데</w>":7616,"없어도</w>":7617,"엇는데</w>":7618,"에로</w>":7619,"영웅</w>":7620,"운명":7621,"이탈":7622,"잃은</w>":7623,"있겠지만</w>":7624,"잊고</w>":7625,"장을</w>":7626,"조폭</w>":7627,"지라도</w>":7628,"짓을</w>":7629,"짜여":7630,"짝퉁</w>":7631,"쩌는</w>":7632,"채우":7633,"펑펑":7634,"했다가</w>":7635,"호러</w>":7636,"생각은</w>":7637,"감동입니다</w>":7638,"사랑스럽고</w>":7639,"재미없었":7640,"정도다</w>":7641,"영상은</w>":7642,"보이지만</w>":7643,"관객이</w>":7644,"긴장감을</w>":7645,"시키고</w>":7646,"198":7647,"당신의</w>":7648,"멋지게</w>":7649,"엉망진":7650,"질질끌":7651,"2점부터</w>":7652,"터미네이터":7653,"MB":7654,"M창</w>":7655,"가득</w>":7656,"구리":7657,"구가</w>":7658,"국내</w>":7659,"기자":7660,"달리":7661,"답이</w>":7662,"대결":7663,"동생</w>":7664,"딸이</w>":7665,"로보":7666,"매번</w>":7667,"머릿":7668,"민족":7669,"상식":7670,"상에</w>":7671,"수없는</w>":7672,"스에서</w>":7673,"싸움</w>":7674,"안될":7675,"앞으로":7676,"애들도</w>":7677,"어제":7678,"에대해</w>":7679,"역량":7680,"웃었다</w>":7681,"이랄까</w>":7682,"있게":7683,"재방":7684,"착한":7685,"최소</w>":7686,"치다</w>":7687,"코드가</w>":7688,"틈이</w>":7689,"플롯":7690,"허나</w>":7691,"흐르":7692,"영화랑</w>":7693,"연기만</w>":7694,"재미있었는데</w>":7695,"드라마중</w>":7696,"기대하고":7697,"쓰레기는</w>":7698,"마지막은</w>":7699,"다시금</w>":7700,"공포는</w>":7701,"만드냐</w>":7702,"짜증만</w>":7703,"10점준다</w>":7704,"그렇다":7705,"들어가":7706,"들어도</w>":7707,"캐릭터들</w>":7708,"제목에</w>":7709,"대사는</w>":7710,"얼마나":7711,"하시는":7712,"만화를</w>":7713,"오글오글</w>":7714,"여러모로</w>":7715,"해서는</w>":7716,"만큼의</w>":7717,"초등학교</w>":7718,"역겨운</w>":7719,"브루스</w>":7720,"2가</w>":7721,"ㅜㅜㅜ</w>":7722,"것과</w>":7723,"고독":7724,"공연":7725,"공주":7726,"과정이</w>":7727,"국어":7728,"나아":7729,"다리":7730,"다보고</w>":7731,"던것</w>":7732,"동네</w>":7733,"된게</w>":7734,"말에</w>":7735,"말하려":7736,"맞나</w>":7737,"맨이</w>":7738,"모아":7739,"무거":7740,"미야":7741,"박시":7742,"박찬":7743,"보라</w>":7744,"볼거":7745,"분한</w>":7746,"빠지는</w>":7747,"섹스</w>":7748,"안가는</w>":7749,"안어울":7750,"알앗":7751,"왔어요</w>":7752,"을것</w>":7753,"잇는</w>":7754,"있겠":7755,"작가는</w>":7756,"저냥</w>":7757,"적을</w>":7758,"졸리":7759,"주네</w>":7760,"쩔어</w>":7761,"평화":7762,"피터":7763,"하긴":7764,"하실":7765,"한데":7766,"향연</w>":7767,"영화속</w>":7768,"사람만</w>":7769,"아니라면</w>":7770,"이라는":7771,"이해불가</w>":7772,"주인공들이</w>":7773,"마지막회":7774,"하고자":7775,"짜증나게</w>":7776,"남자는</w>":7777,"이거보단</w>":7778,"부분을</w>":7779,"어이가":7780,"의미도</w>":7781,"없는듯</w>":7782,"영화라면</w>":7783,"분위기는</w>":7784,"나올때</w>":7785,"오래전에</w>":7786,"독특하고</w>":7787,"아빠가</w>":7788,"관심이</w>":7789,"가장한</w>":7790,"카리스마</w>":7791,"본방사수":7792,"블록버스터":7793,"심형래":7794,"우뢰매":7795,"바탕으로</w>":7796,"1인":7797,"1회":7798,"Good</w>":7799,"TV</w>":7800,"감성을</w>":7801,"고전</w>":7802,"까지만</w>":7803,"는군</w>":7804,"능가":7805,"되어서</w>":7806,"랑은</w>":7807,"리즈</w>":7808,"말투":7809,"몇년":7810,"몰라":7811,"미의</w>":7812,"받은":7813,"배는</w>":7814,"보임</w>":7815,"보겠다</w>":7816,"빵점</w>":7817,"상황</w>":7818,"생긴":7819,"소지":7820,"실패</w>":7821,"알수</w>":7822,"았음</w>":7823,"어야지</w>":7824,"에라이</w>":7825,"요새</w>":7826,"원래":7827,"으니":7828,"의해</w>":7829,"이고":7830,"인한</w>":7831,"일어나":7832,"장진":7833,"전도":7834,"주기":7835,"진행</w>":7836,"쯧쯧</w>":7837,"청춘</w>":7838,"클로":7839,"팔이</w>":7840,"피어":7841,"하더니</w>":7842,"합시다</w>":7843,"지루함을</w>":7844,"스토리도":7845,"너무하네</w>":7846,"사랑해</w>":7847,"사랑스럽다</w>":7848,"재미없다":7849,"재미없네요</w>":7850,"20대</w>":7851,"만드나</w>":7852,"음악을</w>":7853,"하기에는</w>":7854,"만들었냐</w>":7855,"추천하고</w>":7856,"잼있네요</w>":7857,"배경으로</w>":7858,"말이필요없다</w>":7859,"한마디</w>":7860,"장르를</w>":7861,"다운받아서</w>":7862,"라고요</w>":7863,"헐리우드":7864,"성룡의</w>":7865,"환상적인</w>":7866,"조잡한</w>":7867,"섬세한</w>":7868,"주성치</w>":7869,"ed</w>":7870,"과도":7871,"교회":7872,"그로":7873,"그를</w>":7874,"그당시</w>":7875,"기타":7876,"꼭봐야":7877,"끝을</w>":7878,"내지</w>":7879,"닥치고</w>":7880,"당하고</w>":7881,"되길</w>":7882,"들이다</w>":7883,"레이</w>":7884,"마다":7885,"먹을":7886,"멈추":7887,"모른":7888,"문에</w>":7889,"뭐야":7890,"미드":7891,"민이</w>":7892,"보지도</w>":7893,"본것":7894,"뿐만</w>":7895,"스파":7896,"시걸</w>":7897,"심사":7898,"심에</w>":7899,"어색</w>":7900,"엽기":7901,"우린</w>":7902,"으셨":7903,"이영":7904,"이서</w>":7905,"이영화의</w>":7906,"잠을</w>":7907,"주제</w>":7908,"즈가</w>":7909,"짱이다</w>":7910,"초월":7911,"커버":7912,"케빈":7913,"한효":7914,"할정도로</w>":7915,"호흡":7916,"황금":7917,"후반</w>":7918,"스토리로</w>":7919,"이라는게</w>":7920,"하는듯</w>":7921,"아깝습니다</w>":7922,"주인공들의</w>":7923,"하고도</w>":7924,"애니를</w>":7925,"는거임</w>":7926,"보고싶네요</w>":7927,"대사와</w>":7928,"영화였는데</w>":7929,"재밌었던</w>":7930,"충분한</w>":7931,"세계를</w>":7932,"허무한</w>":7933,"마무리가</w>":7934,"선생님":7935,"내생애</w>":7936,"포인트":7937,"어두운</w>":7938,"ev":7939,"가만":7940,"가자</w>":7941,"개의</w>":7942,"경찰</w>":7943,"곳에서</w>":7944,"관점":7945,"기까지</w>":7946,"나지</w>":7947,"내서</w>":7948,"내돈</w>":7949,"놈은</w>":7950,"눈빛</w>":7951,"니버":7952,"뜨고</w>":7953,"무거운</w>":7954,"물은</w>":7955,"뭐라":7956,"배가</w>":7957,"상대":7958,"섬뜩":7959,"소가</w>":7960,"스턴":7961,"승전":7962,"시도는</w>":7963,"오직</w>":7964,"요일</w>":7965,"으리</w>":7966,"음식":7967,"의한</w>":7968,"이별":7969,"인류":7970,"있나요</w>":7971,"자꾸":7972,"잠이</w>":7973,"적당</w>":7974,"조기":7975,"조절</w>":7976,"죽을</w>":7977,"집에":7978,"쩌네</w>":7979,"첩보":7980,"치료":7981,"한의</w>":7982,"해줘서</w>":7983,"영화적</w>":7984,"만들기</w>":7985,"스토리나</w>":7986,"한국판</w>":7987,"이상하다</w>":7988,"재밋고</w>":7989,"애니매이":7990,"하기는</w>":7991,"개봉한</w>":7992,"아직도":7993,"만들었으면</w>":7994,"보고싶어요</w>":7995,"소리만</w>":7996,"한번더</w>":7997,"1편의</w>":7998,"힘들었다</w>":7999,"역사에</w>":8000,"재밌게봤는데</w>":8001,"것같네요</w>":8002,"두번째</w>":8003,"울었어요</w>":8004,"미안하다</w>":8005,"후반부에</w>":8006,"깔끔한</w>":8007,"참고로</w>":8008,"어처구니":8009,"어처구니</w>":8010,"조니뎁":8011,"트랜스포":8012,"mb":8013,"개콘":8014,"고스":8015,"관을</w>":8016,"난무":8017,"날라":8018,"날아":8019,"노동":8020,"노는</w>":8021,"녹아":8022,"놓고":8023,"는게":8024,"다행</w>":8025,"뒤로":8026,"들을":8027,"라지만</w>":8028,"말았다</w>":8029,"맞음</w>":8030,"못하네</w>":8031,"미를</w>":8032,"바람</w>":8033,"바란다</w>":8034,"반응":8035,"별점이</w>":8036,"살리지</w>":8037,"상징":8038,"설경":8039,"소녀</w>":8040,"싶다면</w>":8041,"않습니다</w>":8042,"얘기를</w>":8043,"오우":8044,"으면서도</w>":8045,"이순":8046,"이어서</w>":8047,"이어지":8048,"입니까</w>":8049,"있어도</w>":8050,"잠시</w>":8051,"잡을</w>":8052,"저리":8053,"지상":8054,"차태":8055,"첨으로</w>":8056,"퀄리티</w>":8057,"클리":8058,"타는</w>":8059,"할머니</w>":8060,"해놓고</w>":8061,"최고였":8062,"최고라고</w>":8063,"최고최고</w>":8064,"사람과</w>":8065,"사람에게</w>":8066,"하는구나</w>":8067,"기억이":8068,"작품에</w>":8069,"공포가</w>":8070,"안되네</w>":8071,"다는것</w>":8072,"느끼게":8073,"해야하나</w>":8074,"초반엔</w>":8075,"상황이</w>":8076,"자연스럽게</w>":8077,"이따위</w>":8078,"진실을</w>":8079,"삼류영화</w>":8080,"적당한</w>":8081,"하지마</w>":8082,"소름끼치는</w>":8083,"몰입도도</w>":8084,"이소룡":8085,"2년</w>":8086,"500":8087,"가도</w>":8088,"갈때</w>":8089,"거품":8090,"겠어</w>":8091,"고질":8092,"그거</w>":8093,"극중</w>":8094,"넘넘</w>":8095,"넘치고</w>":8096,"노출</w>":8097,"달라고</w>":8098,"도로</w>":8099,"들지</w>":8100,"리언":8101,"만난</w>":8102,"말밖에</w>":8103,"문화</w>":8104,"미션":8105,"발로":8106,"방향":8107,"부활":8108,"뻔하다</w>":8109,"상실":8110,"소리는</w>":8111,"속을</w>":8112,"승리":8113,"시켜</w>":8114,"시끄러":8115,"아메리":8116,"없구</w>":8117,"엉뚱":8118,"여행</w>":8119,"예측":8120,"오페":8121,"오의</w>":8122,"원하는</w>":8123,"으시":8124,"이때":8125,"이자":8126,"인게</w>":8127,"일품</w>":8128,"조연</w>":8129,"지극히</w>":8130,"찬양":8131,"책으로</w>":8132,"치고":8133,"크루즈":8134,"피곤":8135,"한개":8136,"해진":8137,"했는데":8138,"혼란":8139,"활용":8140,"재밌다는</w>":8141,"연기의</w>":8142,"최고에요</w>":8143,"10대</w>":8144,"감동이다</w>":8145,"스토리가":8146,"하나도":8147,"아이돌</w>":8148,"아까울</w>":8149,"이해도</w>":8150,"보여서</w>":8151,"아무나</w>":8152,"필요한가</w>":8153,"극장에</w>":8154,"10점은</w>":8155,"떨어진</w>":8156,"나와도</w>":8157,"대사를</w>":8158,"행복하게</w>":8159,"완벽하게</w>":8160,"주연의</w>":8161,"하겠습니다</w>":8162,"30분</w>":8163,"두번째":8164,"스케일</w>":8165,"메세지를</w>":8166,"질질끄":8167,"새끼들</w>":8168,"연예인":8169,"웃겼다</w>":8170,"느낀다</w>":8171,"이병헌":8172,"1위</w>":8173,"3편</w>":8174,"b급":8175,"or</w>":8176,"강요":8177,"것보다</w>":8178,"군더더":8179,"굳굳</w>":8180,"그자체":8181,"김명":8182,"나로":8183,"나은":8184,"납득":8185,"놈들이</w>":8186,"능력</w>":8187,"당하는</w>":8188,"돈벌":8189,"되냐</w>":8190,"또봐도</w>":8191,"라곤</w>":8192,"라는게</w>":8193,"만세</w>":8194,"망가":8195,"명성에</w>":8196,"문득</w>":8197,"반담":8198,"본능":8199,"부의</w>":8200,"사과":8201,"삶은</w>":8202,"손꼽":8203,"손예":8204,"송승":8205,"심리</w>":8206,"씨도</w>":8207,"안드":8208,"안다</w>":8209,"안의</w>":8210,"안봄</w>":8211,"안되</w>":8212,"안봐서</w>":8213,"않아요</w>":8214,"알리":8215,"없으니</w>":8216,"엉성</w>":8217,"여기에</w>":8218,"여주인공의</w>":8219,"연상":8220,"오르":8221,"오해":8222,"웃다가</w>":8223,"원을</w>":8224,"을거":8225,"이태":8226,"이것은</w>":8227,"입고</w>":8228,"쟁이</w>":8229,"저것</w>":8230,"정사":8231,"제가":8232,"좋더라</w>":8233,"지우":8234,"쩡한</w>":8235,"터지는</w>":8236,"트릭":8237,"판을</w>":8238,"한동안</w>":8239,"희의</w>":8240,"지루했음</w>":8241,"감독님의</w>":8242,"하는것도</w>":8243,"기대하지</w>":8244,"아이들에게</w>":8245,"아까워요</w>":8246,"장면과</w>":8247,"OOOO":8248,"이야기에</w>":8249,"나왔음</w>":8250,"웃기는</w>":8251,"어디서":8252,"막장드라마</w>":8253,"긴장감은</w>":8254,"인물들의</w>":8255,"나이에</w>":8256,"이딴게</w>":8257,"완성도가</w>":8258,"죽음을</w>":8259,"어쩔수</w>":8260,"상처를</w>":8261,"다큐멘터리":8262,"기발한</w>":8263,"뛰어넘는</w>":8264,"movie</w>":8265,"어차피</w>":8266,"28":8267,"2년":8268,"el":8269,"ha":8270,"간히</w>":8271,"감수":8272,"같다":8273,"곳이</w>":8274,"공허":8275,"구경":8276,"글쎄":8277,"기자</w>":8278,"나만":8279,"남는게</w>":8280,"내시간</w>":8281,"냉정":8282,"네용</w>":8283,"두사":8284,"로멘":8285,"무의미":8286,"믿을</w>":8287,"바랬":8288,"바가</w>":8289,"박평":8290,"버린다</w>":8291,"보니":8292,"봤다는</w>":8293,"비하":8294,"살아</w>":8295,"싶음</w>":8296,"쓴다</w>":8297,"아픈":8298,"안습":8299,"어로</w>":8300,"요일":8301,"움에</w>":8302,"원피":8303,"위안":8304,"위원":8305,"유승":8306,"의리</w>":8307,"이스":8308,"자도</w>":8309,"잘함</w>":8310,"잘하는</w>":8311,"재수":8312,"정주":8313,"중에":8314,"중학생":8315,"지독":8316,"최소한</w>":8317,"커서</w>":8318,"코드":8319,"틀림":8320,"하더라도</w>":8321,"한정":8322,"한계</w>":8323,"할말이":8324,"영화계의</w>":8325,"사람들도</w>":8326,"만들수</w>":8327,"아니였":8328,"아니네요</w>":8329,"감동적인":8330,"좋아하네요</w>":8331,"보는거</w>":8332,"1점준다</w>":8333,"에서나</w>":8334,"ㅋㅋㅋㅋㅋㅋㅋㅋㅋㅋㅋ</w>":8335,"아름다움</w>":8336,"10점이</w>":8337,"지마세요</w>":8338,"나왔던</w>":8339,"아쉬워요</w>":8340,"1편에</w>":8341,"지말자</w>":8342,"귀여움</w>":8343,"완벽하다</w>":8344,"어울리지</w>":8345,"상황에</w>":8346,"캐스팅은</w>":8347,"2편도</w>":8348,"oooo":8349,"시절을</w>":8350,"취향은</w>":8351,"흘러가는</w>":8352,"그려낸</w>":8353,"빠지게</w>":8354,"제이슨</w>":8355,"크리스마스</w>":8356,"본방사수</w>":8357,"제니퍼</w>":8358,"더욱더</w>":8359,"두고두고</w>":8360,"강지":8361,"구혜":8362,"기보단</w>":8363,"김선":8364,"나니</w>":8365,"나간</w>":8366,"네가</w>":8367,"노무":8368,"높네</w>":8369,"는줄</w>":8370,"달라</w>":8371,"달리는</w>":8372,"대본</w>":8373,"던데요</w>":8374,"돈아까워</w>":8375,"들여</w>":8376,"따위</w>":8377,"마인":8378,"막판</w>":8379,"만하고</w>":8380,"먹고":8381,"버무":8382,"버리지</w>":8383,"번도</w>":8384,"베트":8385,"보통":8386,"본다":8387,"불과":8388,"살이</w>":8389,"수정":8390,"시오</w>":8391,"신인":8392,"신도</w>":8393,"실수":8394,"싶었는데</w>":8395,"쓰러":8396,"쓰지</w>":8397,"아깝</w>":8398,"안성":8399,"어서":8400,"어째</w>":8401,"여배우가</w>":8402,"올레":8403,"요리":8404,"원에</w>":8405,"위의</w>":8406,"있는게</w>":8407,"있으니</w>":8408,"장군":8409,"저평가":8410,"조낸</w>":8411,"줄알았":8412,"지저":8413,"촬영</w>":8414,"편하게</w>":8415,"하드":8416,"하네요":8417,"하구만</w>":8418,"한영화":8419,"흑인":8420,"영화같은</w>":8421,"연기로</w>":8422,"평점도</w>":8423,"감독에게</w>":8424,"최악임</w>":8425,"이상함</w>":8426,"유치해</w>":8427,"느낌도</w>":8428,"애니가</w>":8429,"부분에</w>":8430,"억지스럽고</w>":8431,"봐야겠다</w>":8432,"다는건지</w>":8433,"잼있게":8434,"코미디는</w>":8435,"감동적이에요</w>":8436,"노래는</w>":8437,"추억을</w>":8438,"영화인것</w>":8439,"이것보다</w>":8440,"영상미와</w>":8441,"싫어하는</w>":8442,"메세지가</w>":8443,"귀신이</w>":8444,"킬링타임용으로도</w>":8445,"특수효과":8446,"감명깊게</w>":8447,"겨울왕":8448,"EBS":8449,"가네</w>":8450,"간단":8451,"개나":8452,"겠다고</w>":8453,"괴롭":8454,"구구":8455,"군대</w>":8456,"귀찮":8457,"그녀</w>":8458,"노의</w>":8459,"높아":8460,"눈요":8461,"더라고요</w>":8462,"데스":8463,"도에</w>":8464,"되게":8465,"떠올리":8466,"많음</w>":8467,"맛에</w>":8468,"먹을</w>":8469,"몇번</w>":8470,"모호":8471,"몸에</w>":8472,"보일":8473,"비참":8474,"뻔함</w>":8475,"살렸다</w>":8476,"서정":8477,"센스":8478,"수도":8479,"시기":8480,"시험":8481,"시끄럽":8482,"애절":8483,"어째":8484,"열광":8485,"외면":8486,"웃을</w>":8487,"위로":8488,"위가</w>":8489,"윌리스":8490,"이니":8491,"재개봉":8492,"적나라":8493,"제국":8494,"좋고":8495,"줄알았다</w>":8496,"중에서도</w>":8497,"지배":8498,"지다</w>":8499,"짱이":8500,"쪽팔":8501,"차이가</w>":8502,"킬러":8503,"타쿠":8504,"평균":8505,"평이":8506,"학년</w>":8507,"한것도</w>":8508,"영화일":8509,"배우와</w>":8510,"아니네</w>":8511,"스토리라":8512,"액션만</w>":8513,"때문이다</w>":8514,"지금까지":8515,"다시보기":8516,"ㅋㅋㅋㅋㅋㅋㅋㅋㅋㅋ</w>":8517,"이거보다</w>":8518,"살아있는</w>":8519,"힘들었":8520,"주제에</w>":8521,"가치도</w>":8522,"영상미도</w>":8523,"높은지</w>":8524,"후반부로</w>":8525,"ost도</w>":8526,"난해한</w>":8527,"에피소드":8528,"아류작</w>":8529,"세련된</w>":8530,"아기자기":8531,"도라에":8532,"가네요</w>":8533,"가는게</w>":8534,"게도</w>":8535,"끝난다</w>":8536,"낭만":8537,"다ㅠㅠ</w>":8538,"마케":8539,"명품</w>":8540,"묘사가</w>":8541,"미쳐":8542,"미치는</w>":8543,"밖에는</w>":8544,"버튼":8545,"보라":8546,"부르는</w>":8547,"불법":8548,"빠른</w>":8549,"수십":8550,"수밖에</w>":8551,"스코":8552,"신세":8553,"앞서":8554,"어어":8555,"여유":8556,"연이</w>":8557,"영은</w>":8558,"옆에</w>":8559,"오인":8560,"오고</w>":8561,"유익":8562,"이영화에</w>":8563,"이구만</w>":8564,"있고":8565,"잘하네요</w>":8566,"잠깐":8567,"저지":8568,"저나</w>":8569,"저기</w>":8570,"좋게":8571,"지네요</w>":8572,"진수</w>":8573,"찍는</w>":8574,"찬사를</w>":8575,"채워":8576,"처절":8577,"치는":8578,"통해서</w>":8579,"피가</w>":8580,"하디</w>":8581,"하려</w>":8582,"학창":8583,"영화같":8584,"영화계":8585,"연기하는</w>":8586,"1000":8587,"감동도없고</w>":8588,"사랑도</w>":8589,"아이고</w>":8590,"장면에</w>":8591,"처음이네</w>":8592,"기억나는</w>":8593,"기억난다</w>":8594,"주인공도</w>":8595,"이상도</w>":8596,"이상해</w>":8597,"여자들이</w>":8598,"공포도</w>":8599,"남자를</w>":8600,"인생에서</w>":8601,"아직까지도</w>":8602,"만든건지</w>":8603,"개인적인</w>":8604,"감동적이었다</w>":8605,"미국식</w>":8606,"ㅎㅎㅎ":8607,"고싶은</w>":8608,"긴장감과</w>":8609,"언제까지</w>":8610,"어지럽":8611,"다음으로</w>":8612,"잘못된</w>":8613,"설명이</w>":8614,"어설프게</w>":8615,"풀어낸</w>":8616,"취향이</w>":8617,"영웅본":8618,"스포츠":8619,"싸이코</w>":8620,"남기는데</w>":8621,"오그라드는</w>":8622,"아련한</w>":8623,"오랫동안</w>":8624,"밋밋한</w>":8625,"패러디</w>":8626,"개인적으로는</w>":8627,"다크나이":8628,"해리포터":8629,"오프닝":8630,"조차도</w>":8631,"9점대":8632,"b급</w>":8633,"sh":8634,"wa":8635,"감성이</w>":8636,"거듭":8637,"것인지</w>":8638,"경이":8639,"길래":8640,"께서</w>":8641,"끼리":8642,"나서":8643,"니의</w>":8644,"달아":8645,"답다</w>":8646,"던게</w>":8647,"덩어":8648,"도중에</w>":8649,"돌아</w>":8650,"되네</w>":8651,"따스":8652,"롭게</w>":8653,"몰라</w>":8654,"못할":8655,"문을</w>":8656,"반갑":8657,"보나</w>":8658,"복수</w>":8659,"볼까</w>":8660,"봣어요</w>":8661,"살린":8662,"살인</w>":8663,"상큼":8664,"색깔":8665,"스로</w>":8666,"시사회</w>":8667,"싫어</w>":8668,"애들이":8669,"없구나</w>":8670,"에비해</w>":8671,"우롱":8672,"울뿐</w>":8673,"원조":8674,"위트":8675,"위를</w>":8676,"장에</w>":8677,"점점":8678,"제작</w>":8679,"조심":8680,"주관":8681,"주시":8682,"주려고</w>":8683,"줄알았는데</w>":8684,"지와</w>":8685,"참여":8686,"참을</w>":8687,"채플":8688,"치지</w>":8689,"프라이":8690,"필름</w>":8691,"하였":8692,"후하게</w>":8693,"히고</w>":8694,"생각만</w>":8695,"아니고":8696,"재미없었음</w>":8697,"아깝다는</w>":8698,"쓰레기네</w>":8699,"현실에</w>":8700,"현실적으로</w>":8701,"지금보면</w>":8702,"지않게</w>":8703,"인간적으로</w>":8704,"별로네요</w>":8705,"나왔는데</w>":8706,"느껴지지</w>":8707,"어디에</w>":8708,"제작진</w>":8709,"어설픈":8710,"알바생":8711,"인상적</w>":8712,"할수있는</w>":8713,"하려면</w>":8714,"오글거리고</w>":8715,"라는걸</w>":8716,"걸작이다</w>":8717,"나머진</w>":8718,"거기서</w>":8719,"웃긴다</w>":8720,"하셨습니다</w>":8721,"tv에서</w>":8722,"소장하고</w>":8723,"존경합니다</w>":8724,"감명깊":8725,"새로운":8726,"의리의리":8727,"고맙습니다</w>":8728,"웬만하면</w>":8729,"뒤죽박죽</w>":8730,"호불호가</w>":8731,"80년대":8732,"gh":8733,"가난":8734,"가다</w>":8735,"갔다가</w>":8736,"것들을</w>":8737,"구먼</w>":8738,"기존":8739,"김윤":8740,"나비":8741,"날리":8742,"남성":8743,"남친":8744,"낮게":8745,"너희":8746,"논리":8747,"다들":8748,"당장</w>":8749,"더군</w>":8750,"던거":8751,"드물":8752,"들러":8753,"등이</w>":8754,"레드":8755,"로빈":8756,"론의</w>":8757,"리얼</w>":8758,"밖엔</w>":8759,"배워":8760,"벗어나":8761,"빈약":8762,"설마":8763,"쉽지</w>":8764,"시의</w>":8765,"신데":8766,"안보는":8767,"안보면</w>":8768,"안나오고</w>":8769,"않네</w>":8770,"어머니</w>":8771,"없애":8772,"에이</w>":8773,"여신":8774,"여배우의</w>":8775,"열심":8776,"우선</w>":8777,"워낙</w>":8778,"이경":8779,"장근":8780,"장에서</w>":8781,"조승":8782,"증을</w>":8783,"지어":8784,"차이</w>":8785,"치만</w>":8786,"콘서":8787,"크다</w>":8788,"표정이</w>":8789,"피를</w>":8790,"할줄</w>":8791,"황당</w>":8792,"흘렸":8793,"생각에</w>":8794,"최고봉</w>":8795,"사람마다</w>":8796,"ㅋㅋㅋㅋㅋㅋ":8797,"아니냐</w>":8798,"10대":8799,"하는데":8800,"드라마라고</w>":8801,"이런식으로</w>":8802,"기대이하</w>":8803,"공포물</w>":8804,"하고싶은</w>":8805,"볼만한데</w>":8806,"10점준</w>":8807,"안되서</w>":8808,"억지스런</w>":8809,"가족과</w>":8810,"표현할</w>":8811,"의미있는</w>":8812,"무엇인가</w>":8813,"슬프네요</w>":8814,"엔딩은</w>":8815,"만화가</w>":8816,"잔인하고</w>":8817,"캐스팅도</w>":8818,"사이에서</w>":8819,"성우가</w>":8820,"100점</w>":8821,"그림체":8822,"이렇게까지</w>":8823,"평론가들</w>":8824,"시원한</w>":8825,"거짓말":8826,"감동적입니다</w>":8827,"분명히</w>":8828,"편견을</w>":8829,"러시아":8830,"네티즌":8831,"점수준것들</w>":8832,"아카데":8833,"에드워":8834,"어수선":8835,"1은</w>":8836,"3년</w>":8837,"7년":8838,"8점은</w>":8839,"to":8840,"가깝":8841,"가리":8842,"고를</w>":8843,"과정을</w>":8844,"그닥":8845,"끌고":8846,"날려":8847,"남긴다</w>":8848,"는다":8849,"니들이</w>":8850,"된다고</w>":8851,"란히</w>":8852,"로드</w>":8853,"리스트":8854,"머지</w>":8855,"묘사</w>":8856,"뭔가요</w>":8857,"바보</w>":8858,"박정":8859,"발연기에</w>":8860,"배꼽":8861,"변호":8862,"보셨":8863,"보면서":8864,"봤어요":8865,"부산":8866,"성숙":8867,"센스</w>":8868,"심장이</w>":8869,"싶으면</w>":8870,"얘기가</w>":8871,"온갖</w>":8872,"우디":8873,"원에서</w>":8874,"웨이</w>":8875,"음ㅋ</w>":8876,"이중":8877,"이긴</w>":8878,"이드라마":8879,"인지는</w>":8880,"임청":8881,"자격":8882,"자면</w>":8883,"재치":8884,"전에":8885,"증명":8886,"지워":8887,"청소년</w>":8888,"크가</w>":8889,"탈출</w>":8890,"태권":8891,"픽션":8892,"한예":8893,"한걸</w>":8894,"호의</w>":8895,"환타":8896,"흐지부":8897,"영화화":8898,"영화자체는</w>":8899,"사람들이":8900,"10분</w>":8901,"재미있어서</w>":8902,"스토리지만</w>":8903,"기대된다</w>":8904,"아이들은</w>":8905,"지금이나</w>":8906,"마음에":8907,"공포영화는</w>":8908,"스러웠다</w>":8909,"있는듯</w>":8910,"캐릭터의</w>":8911,"어디가</w>":8912,"소리를</w>":8913,"재밌었습니다</w>":8914,"부족하고</w>":8915,"연기력과</w>":8916,"세상의</w>":8917,"전쟁영화</w>":8918,"허접하고</w>":8919,"초반에는</w>":8920,"나올까</w>":8921,"설정과</w>":8922,"이것저것</w>":8923,"관심을</w>":8924,"전편보다</w>":8925,"피해자":8926,"의도를</w>":8927,"느낄수":8928,"심각하게</w>":8929,"결국엔</w>":8930,"떠오르":8931,"레전드":8932,"한숨만</w>":8933,"영향을</w>":8934,"나레이션":8935,"신하균":8936,"1년</w>":8937,"3년":8938,"70":8939,"M창":8940,"ch":8941,"rea":8942,"uc":8943,"ㄱㄱ</w>":8944,"가진":8945,"가치</w>":8946,"갖춘</w>":8947,"개같은</w>":8948,"거는</w>":8949,"건조":8950,"고한</w>":8951,"고자</w>":8952,"고작</w>":8953,"관람</w>":8954,"구멍":8955,"꺼야</w>":8956,"남기는</w>":8957,"넘쳐":8958,"다리</w>":8959,"대부분":8960,"돈이":8961,"돈은</w>":8962,"된장":8963,"됬는데</w>":8964,"또는</w>":8965,"모독":8966,"못생겼":8967,"미술":8968,"박해":8969,"범인</w>":8970,"본적이</w>":8971,"볼걸</w>":8972,"선수":8973,"심리를</w>":8974,"싶었던</w>":8975,"아우</w>":8976,"안겨":8977,"엑소시":8978,"유발</w>":8979,"의견":8980,"이기</w>":8981,"이때</w>":8982,"장소":8983,"저의</w>":8984,"정우</w>":8985,"즐길":8986,"직접":8987,"짱임</w>":8988,"춤추":8989,"태국":8990,"태어나":8991,"하의</w>":8992,"할수록</w>":8993,"형사</w>":8994,"회상":8995,"영화의":8996,"아니라":8997,"좋아하고</w>":8998,"아이와</w>":8999,"이상을</w>":9000,"공포영화가</w>":9001,"만드는지</w>":9002,"무섭게</w>":9003,"의미없는</w>":9004,"초반부터</w>":9005,"사회적</w>":9006,"충분하다</w>":9007,"비교하면</w>":9008,"어렸을때":9009,"케이블</w>":9010,"머리에</w>":9011,"가치를</w>":9012,"개그맨":9013,"시절에</w>":9014,"몰랐는데</w>":9015,"식상하다</w>":9016,"울었습니다</w>":9017,"이번에</w>":9018,"말아먹":9019,"생각해보게</w>":9020,"연기자들</w>":9021,"아줌마</w>":9022,"한계를</w>":9023,"제대로된</w>":9024,"이따위로</w>":9025,"힘내세요</w>":9026,"박중훈":9027,"명불허전</w>":9028,"C급</w>":9029,"it":9030,"ra":9031,"걸리":9032,"게리":9033,"결혼</w>":9034,"고소":9035,"고은":9036,"기록":9037,"남는건</w>":9038,"너는</w>":9039,"넘은</w>":9040,"노골":9041,"놀랬":9042,"는지도</w>":9043,"다ㅠ</w>":9044,"던데":9045,"돈내":9046,"드려요</w>":9047,"등을</w>":9048,"따로":9049,"리브":9050,"말이다</w>":9051,"망할</w>":9052,"망친</w>":9053,"명확":9054,"못따라":9055,"믿기지</w>":9056,"바이</w>":9057,"받지</w>":9058,"발랄":9059,"방에서</w>":9060,"배드":9061,"보니깐</w>":9062,"본듯한</w>":9063,"볼땐</w>":9064,"부에</w>":9065,"불가능":9066,"블랙</w>":9067,"사는":9068,"살때</w>":9069,"상당한</w>":9070,"색채":9071,"생존":9072,"소문":9073,"승부":9074,"시를</w>":9075,"아래":9076,"야한</w>":9077,"엇음</w>":9078,"와일":9079,"움은</w>":9080,"워지는</w>":9081,"유부":9082,"이기에</w>":9083,"인걸</w>":9084,"자주":9085,"절정</w>":9086,"제왕":9087,"존재</w>":9088,"지가":9089,"지리":9090,"천사":9091,"콜린":9092,"파라노":9093,"하루</w>":9094,"학살":9095,"한줄":9096,"할것</w>":9097,"해줄":9098,"홍진":9099,"재미있는":9100,"시간과</w>":9101,"보는줄</w>":9102,"액션에</w>":9103,"처음본다</w>":9104,"주인공을</w>":9105,"현실적이고</w>":9106,"1점주":9107,"연출을</w>":9108,"남자주인공</w>":9109,"명작임</w>":9110,"보기는</w>":9111,"수준이다</w>":9112,"결말이":9113,"코미디가</w>":9114,"영화라는게</w>":9115,"분위기를</w>":9116,"어린이</w>":9117,"진부하다</w>":9118,"그나저나</w>":9119,"불쌍해서</w>":9120,"평가를</w>":9121,"설정에</w>":9122,"빠져들게</w>":9123,"내가본":9124,"CG는</w>":9125,"많은것을</w>":9126,"아프리":9127,"화이팅":9128,"이후에</w>":9129,"바라보는</w>":9130,"훈훈하고</w>":9131,"즐겁고</w>":9132,"해피엔딩</w>":9133,"그럴듯":9134,"메시지를</w>":9135,"미래를</w>":9136,"ery</w>":9137,"흥미롭게</w>":9138,"짱짱맨</w>":9139,"고등학교</w>":9140,"9999":9141,"스트레스":9142,"아픔을</w>":9143,"1점준것":9144,"러닝타임이</w>":9145,"짜집기</w>":9146,"교과서</w>":9147,"그럼에도</w>":9148,"시간때우기":9149,"비쥬얼":9150,"ee":9151,"ow</w>":9152,"걸린</w>":9153,"게이</w>":9154,"구의</w>":9155,"귀가</w>":9156,"그들을</w>":9157,"끝은</w>":9158,"나간":9159,"낚여서</w>":9160,"남을":9161,"너의</w>":9162,"다코":9163,"다보니</w>":9164,"데려":9165,"되어야</w>":9166,"들보다</w>":9167,"라스트":9168,"로망":9169,"망설":9170,"못했":9171,"미장":9172,"방황":9173,"배려":9174,"보석":9175,"보셔":9176,"봤어</w>":9177,"비해서</w>":9178,"빈약한</w>":9179,"사로":9180,"살렸":9181,"상도</w>":9182,"서스":9183,"손발":9184,"수가":9185,"시네":9186,"신민":9187,"아끼":9188,"어주":9189,"에일":9190,"역의</w>":9191,"열자":9192,"위에서</w>":9193,"은거</w>":9194,"을지</w>":9195,"작을</w>":9196,"장은</w>":9197,"잼씀</w>":9198,"잼없다</w>":9199,"잼나요</w>":9200,"전문</w>":9201,"조화</w>":9202,"주먹":9203,"증말</w>":9204,"지브":9205,"차가":9206,"터짐</w>":9207,"토마":9208,"파고":9209,"패션":9210,"풍자":9211,"하죠</w>":9212,"한이</w>":9213,"한사람":9214,"혀서</w>":9215,"형님":9216,"히스":9217,"히히":9218,"최고인듯</w>":9219,"사랑해":9220,"이런것도</w>":9221,"보는동안</w>":9222,"장면의</w>":9223,"기억을</w>":9224,"1점이</w>":9225,"만드는":9226,"재밋네요</w>":9227,"명작이라고</w>":9228,"아름다웠다</w>":9229,"원작은</w>":9230,"안되게</w>":9231,"가족영화</w>":9232,"잔잔하면서도</w>":9233,"노래를</w>":9234,"없었으면</w>":9235,"더럽고</w>":9236,"자연스러운</w>":9237,"누구도</w>":9238,"미친듯이</w>":9239,"우리나라의</w>":9240,"킬링타임용도</w>":9241,"동화같은</w>":9242,"분들께</w>":9243,"고등학생":9244,"특수효과</w>":9245,"같아요":9246,"예뻐서</w>":9247,"미야자":9248,"60":9249,"to</w>":9250,"가해":9251,"감탄</w>":9252,"거든</w>":9253,"것같은데</w>":9254,"공유":9255,"괴로":9256,"그대":9257,"그들은</w>":9258,"기승전":9259,"김소":9260,"깊이":9261,"끄고</w>":9262,"끝판":9263,"날이</w>":9264,"네ㅋㅋ</w>":9265,"늦게":9266,"돋보인다</w>":9267,"된다":9268,"디아":9269,"땜시</w>":9270,"똑똑":9271,"뜨거":9272,"레기</w>":9273,"로우":9274,"로우</w>":9275,"리암":9276,"마을":9277,"매미":9278,"모방":9279,"무척":9280,"버전":9281,"버전</w>":9282,"번역":9283,"볼까":9284,"볼거리</w>":9285,"상한</w>":9286,"상영</w>":9287,"새록</w>":9288,"선택</w>":9289,"송혜":9290,"시사":9291,"시스":9292,"아서":9293,"아다</w>":9294,"야하지도</w>":9295,"어떡":9296,"어고</w>":9297,"엉터":9298,"여튼</w>":9299,"였다면</w>":9300,"영환</w>":9301,"예쁨</w>":9302,"유리</w>":9303,"이겨":9304,"인영화</w>":9305,"일이다</w>":9306,"있다는게</w>":9307,"잡을":9308,"잼있는</w>":9309,"정은</w>":9310,"지원":9311,"찡한</w>":9312,"총격":9313,"폭력</w>":9314,"하리":9315,"한대</w>":9316,"해져":9317,"흥분":9318,"히로":9319,"영화화</w>":9320,"영화들은</w>":9321,"연기한</w>":9322,"생각을":9323,"재미있어":9324,"내용으로</w>":9325,"모르는":9326,"작품도</w>":9327,"쓰레기쓰레기":9328,"유치뽕":9329,"필요없음</w>":9330,"매력적이다</w>":9331,"만들었네</w>":9332,"이었고</w>":9333,"무섭지</w>":9334,"추천한다</w>":9335,"코미디의</w>":9336,"코미디영화</w>":9337,"1편을</w>":9338,"같은거</w>":9339,"관객에게</w>":9340,"배경도</w>":9341,"다큐를</w>":9342,"사회에</w>":9343,"빠져들":9344,"장르의</w>":9345,"나라의</w>":9346,"관계를</w>":9347,"알려주는</w>":9348,"졸작이다</w>":9349,"하지않고</w>":9350,"누군가":9351,"홍콩영화</w>":9352,"메시지가</w>":9353,"불륜을</w>":9354,"지루함의</w>":9355,"슬펐다</w>":9356,"기대안하고":9357,"화장실":9358,"배트맨":9359,"언젠가</w>":9360,"전율이</w>":9361,"탁월한</w>":9362,"소피마르":9363,"24":9364,"ff":9365,"갔으면</w>":9366,"강하게</w>":9367,"건질":9368,"것들은</w>":9369,"결과는</w>":9370,"고인의</w>":9371,"구를</w>":9372,"구는</w>":9373,"꼬라":9374,"꼬맹":9375,"내놓":9376,"당할":9377,"던건</w>":9378,"드릴":9379,"랐다</w>":9380,"래요</w>":9381,"멋져</w>":9382,"모순":9383,"몰입</w>":9384,"몸을</w>":9385,"문학":9386,"물론":9387,"밑도</w>":9388,"반가":9389,"발음":9390,"별반":9391,"보낸다</w>":9392,"볼때":9393,"분들도</w>":9394,"분동안</w>":9395,"불쌍</w>":9396,"서로":9397,"손발</w>":9398,"수사":9399,"실히</w>":9400,"써도</w>":9401,"않으면</w>":9402,"양동":9403,"어중간":9404,"없군</w>":9405,"에바":9406,"에반":9407,"역에</w>":9408,"오유":9409,"오지":9410,"욕나온다</w>":9411,"우승":9412,"운동":9413,"웃김":9414,"웃으며</w>":9415,"이는":9416,"이랬":9417,"이혼":9418,"자들":9419,"재앙":9420,"재방송":9421,"잼없음</w>":9422,"좋으":9423,"죽기전에</w>":9424,"줘요</w>":9425,"줘라</w>":9426,"지니":9427,"추구":9428,"친절":9429,"풀어나":9430,"풍부":9431,"할려고</w>":9432,"향한</w>":9433,"홍금":9434,"흥행</w>":9435,"힐링</w>":9436,"배우로</w>":9437,"좋아했던</w>":9438,"좋아해요</w>":9439,"사랑한다</w>":9440,"기대한</w>":9441,"보여줌</w>":9442,"마지막에":9443,"유치원":9444,"20대":9445,"20년이</w>":9446,"일본이</w>":9447,"원작과</w>":9448,"수준은</w>":9449,"여운도</w>":9450,"만든거":9451,"좋은영화":9452,"이었지만</w>":9453,"제목과</w>":9454,"이유로</w>":9455,"시대적</w>":9456,"만화책":9457,"만화는</w>":9458,"귀여워서</w>":9459,"후회함</w>":9460,"시나리오도</w>":9461,"어쩌다</w>":9462,"시절이</w>":9463,"상영관":9464,"요소를</w>":9465,"안타깝네요</w>":9466,"미치도록</w>":9467,"스타일의</w>":9468,"게임을</w>":9469,"그럴싸":9470,"히어로</w>":9471,"외계인</w>":9472,"ㅇㅇㅇㅇ":9473,"포르노</w>":9474,"응원합니다</w>":9475,"화끈한</w>":9476,"2014년</w>":9477,"교과서":9478,"부럽다</w>":9479,"고스란히</w>":9480,"0점을</w>":9481,"1도</w>":9482,"1개도</w>":9483,"3편은</w>":9484,"4편":9485,"가게</w>":9486,"감에</w>":9487,"감상</w>":9488,"거든":9489,"기본</w>":9490,"김성":9491,"김영":9492,"나의":9493,"나참</w>":9494,"난다":9495,"남녀</w>":9496,"내세":9497,"넘기":9498,"녀석":9499,"능력이</w>":9500,"대기":9501,"던지":9502,"데로</w>":9503,"돼지":9504,"되는게</w>":9505,"될수</w>":9506,"뒤늦게</w>":9507,"리나</w>":9508,"리뷰</w>":9509,"마디":9510,"마주":9511,"만에":9512,"매주</w>":9513,"못했던</w>":9514,"뭐하는</w>":9515,"방금":9516,"보구":9517,"브레이":9518,"빨고</w>":9519,"뿐이고</w>":9520,"상당":9521,"새삼</w>":9522,"성찰":9523,"성인</w>":9524,"숨은</w>":9525,"스마":9526,"심은":9527,"십니다</w>":9528,"않아도</w>":9529,"양조":9530,"어벤":9531,"어짜":9532,"여성</w>":9533,"연의</w>":9534,"왔던</w>":9535,"외에</w>":9536,"잊을수</w>":9537,"지르고</w>":9538,"진의</w>":9539,"징징":9540,"차분":9541,"총을</w>":9542,"코드</w>":9543,"클라이":9544,"팬인데</w>":9545,"한건가</w>":9546,"할거</w>":9547,"했어도</w>":9548,"행크":9549,"혁명":9550,"환장":9551,"흑흑</w>":9552,"영화에서는</w>":9553,"생각해도</w>":9554,"지루함이</w>":9555,"사랑과":9556,"재미없는":9557,"아이의</w>":9558,"작품의</w>":9559,"우리에게</w>":9560,"여자주인공</w>":9561,"볼만해요</w>":9562,"재밋는데</w>":9563,"정말정말</w>":9564,"개봉당시</w>":9565,"안되나</w>":9566,"웃기네</w>":9567,"나온다고</w>":9568,"무서워서</w>":9569,"나와라</w>":9570,"답답해서</w>":9571,"인물이</w>":9572,"인물의</w>":9573,"주제는</w>":9574,"197":9575,"그냥저냥</w>":9576,"하겠지만</w>":9577,"시나리오를</w>":9578,"머리를</w>":9579,"에로영화</w>":9580,"하하하하":9581,"가지로</w>":9582,"있어야":9583,"있어보이":9584,"이어지는</w>":9585,"못보겠":9586,"줄거리가</w>":9587,"극장판은</w>":9588,"감동적임</w>":9589,"전부다</w>":9590,"타이틀":9591,"★★★★":9592,"런닝타임":9593,"아쉬웠지만</w>":9594,"자동차":9595,"유덕화</w>":9596,"뱀파이어</w>":9597,"크리스토":9598,"컴퓨터</w>":9599,"아만다</w>":9600,"윌리엄":9601,"3D</w>":9602,"ri":9603,"ut</w>":9604,"감옥":9605,"감한</w>":9606,"경이</w>":9607,"그에</w>":9608,"꿈과</w>":9609,"나은듯</w>":9610,"남았다</w>":9611,"다를</w>":9612,"듣는</w>":9613,"리언</w>":9614,"마마":9615,"만나고</w>":9616,"말해서</w>":9617,"말하는":9618,"말하면</w>":9619,"명화</w>":9620,"무색":9621,"별이</w>":9622,"비밀</w>":9623,"사도</w>":9624,"상어":9625,"성애</w>":9626,"속은</w>":9627,"송지":9628,"실사":9629,"싶지만</w>":9630,"씨를</w>":9631,"악을</w>":9632,"여도</w>":9633,"였나</w>":9634,"오디":9635,"욕심":9636,"은게</w>":9637,"이들":9638,"있긴</w>":9639,"잘안":9640,"장미":9641,"정재":9642,"주온":9643,"중심":9644,"쥬라":9645,"지경</w>":9646,"찾았":9647,"취향</w>":9648,"카타":9649,"킬링</w>":9650,"토니":9651,"특집":9652,"판으로</w>":9653,"팔아":9654,"팬이라면</w>":9655,"할말을</w>":9656,"함만</w>":9657,"해가는</w>":9658,"허탈":9659,"화질":9660,"희는</w>":9661,"영화처럼</w>":9662,"아니라서</w>":9663,"감독이":9664,"좋아지는</w>":9665,"재미없습니다</w>":9666,"기대됩니다</w>":9667,"아이러":9668,"기억나":9669,"쓰레기가</w>":9670,"쓰레기영화":9671,"여자친구":9672,"20년</w>":9673,"그런영화</w>":9674,"일본영화는</w>":9675,"실망이</w>":9676,"어이없":9677,"들어간</w>":9678,"캐릭터와</w>":9679,"정신을</w>":9680,"모르겠는데</w>":9681,"거리가</w>":9682,"세상은</w>":9683,"분위기도</w>":9684,"없었고</w>":9685,"하시고</w>":9686,"다른건</w>":9687,"전쟁을</w>":9688,"않았음</w>":9689,"배경과</w>":9690,"웃음과</w>":9691,"스릴러를</w>":9692,"상상력이</w>":9693,"이영화보고</w>":9694,"기다렸":9695,"가지고":9696,"오늘도</w>":9697,"영화로는</w>":9698,"사건을</w>":9699,"스타일리":9700,"우울한</w>":9701,"소녀의</w>":9702,"데이빗</w>":9703,"이란게</w>":9704,"블랙코미디</w>":9705,"조용히</w>":9706,"테이큰":9707,"퀄리티가</w>":9708,"00000000":9709,"봤을땐</w>":9710,"장국영</w>":9711,"학년때</w>":9712,"최초의</w>":9713,"The</w>":9714,"1이</w>":9715,"1개</w>":9716,"♡♡</w>":9717,"가관":9718,"갖다</w>":9719,"거라고</w>":9720,"겠는데</w>":9721,"고만</w>":9722,"골때":9723,"곱씹":9724,"괴물</w>":9725,"그럴</w>":9726,"길다</w>":9727,"끝내</w>":9728,"넘는</w>":9729,"놀란":9730,"느리고</w>":9731,"대역":9732,"도움이</w>":9733,"돈과</w>":9734,"돈아깝다</w>":9735,"되니</w>":9736,"되었는데</w>":9737,"됬다</w>":9738,"둘의</w>":9739,"레옹":9740,"로렌":9741,"로마":9742,"만나는</w>":9743,"맘이</w>":9744,"멘탈":9745,"몸이</w>":9746,"번에</w>":9747,"보진</w>":9748,"본격</w>":9749,"봣는데":9750,"부리":9751,"빠질":9752,"선의</w>":9753,"송강호":9754,"슬래":9755,"시골":9756,"시체":9757,"싸울":9758,"아요":9759,"아우":9760,"아쉽</w>":9761,"애는</w>":9762,"없다는게</w>":9763,"었나</w>":9764,"었지</w>":9765,"에대한":9766,"역할</w>":9767,"연인":9768,"울고":9769,"으러</w>":9770,"은근</w>":9771,"음에</w>":9772,"이선":9773,"일관":9774,"있는거":9775,"자들은</w>":9776,"재탕":9777,"저절로</w>":9778,"정리":9779,"제로":9780,"제를</w>":9781,"주목":9782,"주옥":9783,"중반</w>":9784,"진리</w>":9785,"차마</w>":9786,"천원":9787,"최소":9788,"취급":9789,"침묵":9790,"크루":9791,"태양":9792,"트에</w>":9793,"하잖아</w>":9794,"하지못":9795,"한텐</w>":9796,"함으로</w>":9797,"향이</w>":9798,"후에도</w>":9799,"영화도":9800,"재밌지</w>":9801,"최고였습니다</w>":9802,"재미있어</w>":9803,"나오다니</w>":9804,"기대이상":9805,"모르고":9806,"모르나</w>":9807,"액션씬":9808,"쓰레기임</w>":9809,"소재만</w>":9810,"스럽네요</w>":9811,"별로였음</w>":9812,"모습과</w>":9813,"아쉽고</w>":9814,"어이없고</w>":9815,"결말까지</w>":9816,"들어오":9817,"한번쯤은</w>":9818,"출연진</w>":9819,"막장드라마":9820,"행복을</w>":9821,"분위기에</w>":9822,"역사적</w>":9823,"지나친</w>":9824,"상상을</w>":9825,"시즌2</w>":9826,"다운받아</w>":9827,"허무맹":9828,"받아야</w>":9829,"독립영화":9830,"메세지</w>":9831,"흥미진진한</w>":9832,"2점준다</w>":9833,"선생님</w>":9834,"역할을</w>":9835,"ㄷㄷㄷㄷ":9836,"슬픈영화</w>":9837,"멋진영화</w>":9838,"흐름이</w>":9839,"통쾌한</w>":9840,"에피소드</w>":9841,"러닝타임</w>":9842,"과장된</w>":9843,"박진감</w>":9844,"제시카</w>":9845,"사운드":9846,"낚였네</w>":9847,"블록버스터</w>":9848,"자동차</w>":9849,"이따구로</w>":9850,"양아치":9851,"주윤발":9852,"홍상수</w>":9853,"어떠한</w>":9854,"44</w>":9855,"BS</w>":9856,"un":9857,"갈리":9858,"경의를</w>":9859,"고요":9860,"귀요":9861,"급으로</w>":9862,"길고</w>":9863,"깊은":9864,"꺼면</w>":9865,"끄는</w>":9866,"끊임":9867,"나지만</w>":9868,"나봐요</w>":9869,"남편</w>":9870,"닥터":9871,"대학":9872,"도없는</w>":9873,"동네":9874,"동심":9875,"될까</w>":9876,"둥이</w>":9877,"드리고</w>":9878,"듣기</w>":9879,"떡밥":9880,"레오":9881,"말지</w>":9882,"맛을</w>":9883,"명성을</w>":9884,"보단":9885,"본건</w>":9886,"부각":9887,"분장":9888,"불행":9889,"비극</w>":9890,"빠진":9891,"사상":9892,"상투":9893,"서인":9894,"서가</w>":9895,"성장</w>":9896,"신의":9897,"아르":9898,"알렉":9899,"알아</w>":9900,"애정":9901,"얻어":9902,"엉덩":9903,"연주":9904,"영광":9905,"욕먹":9906,"으신":9907,"이범":9908,"이드라마</w>":9909,"이스트":9910,"일단":9911,"있죠</w>":9912,"자비":9913,"조화":9914,"주상":9915,"주지":9916,"지식":9917,"진은</w>":9918,"집단":9919,"짝이":9920,"창의":9921,"촌스럽":9922,"최대의</w>":9923,"치도</w>":9924,"친일":9925,"케빈</w>":9926,"테러</w>":9927,"파트":9928,"플래":9929,"피라":9930,"하던지</w>":9931,"하정우</w>":9932,"할만":9933,"합니까</w>":9934,"해보고</w>":9935,"회를</w>":9936,"영화내내</w>":9937,"연기까지</w>":9938,"만들다</w>":9939,"아니다":9940,"재미있다고</w>":9941,"시간의</w>":9942,"드라마네요</w>":9943,"기대에</w>":9944,"기대되는</w>":9945,"작품중</w>":9946,"아무래도</w>":9947,"지않아</w>":9948,"ㅋㅋㅋㅋㅋㅋㅋㅋㅋㅋㅋㅋㅋ</w>":9949,"매력은</w>":9950,"보기에도</w>":9951,"영상을</w>":9952,"아닌가":9953,"아닌지</w>":9954,"자체를</w>":9955,"보이네요</w>":9956,"잔잔하지만</w>":9957,"모습도</w>":9958,"실망스럽다</w>":9959,"보고싶은":9960,"없었지만</w>":9961,"하시면</w>":9962,"엔딩크레딧":9963,"관객의</w>":9964,"왜이리":9965,"할수도</w>":9966,"장르는</w>":9967,"더빙은</w>":9968,"세계가</w>":9969,"나라를</w>":9970,"지도않":9971,"것같아</w>":9972,"이였음</w>":9973,"영상미는</w>":9974,"이하의</w>":9975,"이기적인</w>":9976,"구성은</w>":9977,"남아있는</w>":9978,"이루어":9979,"가까이</w>":9980,"끝날때까지</w>":9981,"브루스":9982,"특이한</w>":9983,"냄새가</w>":9984,"나루토</w>":9985,"잊지못할</w>":9986,"겉멋만</w>":9987,"덩어리</w>":9988,"1등":9989,"1분":9990,"3분":9991,"3번</w>":9992,"htt":9993,"la":9994,"si":9995,"가식":9996,"가을":9997,"거에요</w>":9998,"계획":9999}